<unk>	0
<s>	0
</s>	0
▁de	-2.9147
,	-3.09812
▁e	-3.28962
.	-3.43987
▁a	-3.67481
▁o	-3.67815
▁en	-4.18273
▁da	-4.24953
s	-4.29253
▁do	-4.31575
▁que	-4.44125
▁un	-4.52096
▁no	-4.71051
▁0000	-4.75487
▁00	-4.84027
▁(	-4.86755
▁unha	-4.91599
▁na	-4.91849
▁foi	-5.17137
▁	-5.2247
▁os	-5.35959
▁por	-5.38717
▁como	-5.40837
)	-5.42069
▁0	-5.46413
▁dos	-5.46563
:	-5.55656
▁as	-5.62206
▁concello	-5.67062
n	-5.6847
▁0000,	-5.68861
▁ou	-5.7141
▁se	-5.72585
▁para	-5.73576
o	-5.799
▁con	-5.80825
▁ao	-5.82298
▁mais	-5.83382
▁parroquia	-5.8386
▁lugar	-5.8786
▁sua	-5.89943
-	-5.91384
▁000	-5.96701
▁habitantes	-5.9888
se	-6.0524
▁das	-6.06908
a	-6.07499
▁seu	-6.09775
▁0000.	-6.13133
▁ano	-6.13536
▁esta	-6.15276
▁segundo	-6.18532
▁nado	-6.24009
▁tina	-6.24968
▁"	-6.25396
).	-6.30947
▁tamen	-6.32362
),	-6.33118
▁son	-6.3437
▁non	-6.37024
▁entre	-6.37148
▁polo	-6.38695
;	-6.39122
▁comarca	-6.43991
▁mulleres	-6.45302
▁homes	-6.48212
en	-6.50676
▁co	-6.55191
▁galego	-6.57182
▁coordenadas	-6.68593
▁ten	-6.71126
▁cidade	-6.72649
▁pola	-6.74507
▁/	-6.77322
r	-6.77407
▁nos	-6.80576
▁parte	-6.83099
"	-6.85869
▁finado	-6.873
▁nome	-6.8895
▁poboacion	-6.91601
▁eran	-6.94482
▁00°00′00′′	-6.96854
e	-6.97532
l	-6.98142
do	-7.01799
▁coa	-7.02971
▁cando	-7.03095
▁provincia	-7.04374
▁san	-7.06221
▁dun	-7.06266
▁ser	-7.06484
▁sobre	-7.08428
▁filme	-7.09358
▁pode	-7.12628
▁nas	-7.13015
▁durante	-7.16324
▁the	-7.17944
▁seus	-7.18974
▁ige	-7.20936
▁anos	-7.21109
▁grupo	-7.22671
▁estadounidense	-7.23391
▁primeira	-7.2537
▁forma	-7.26747
▁conecido	-7.27326
▁datos	-7.28454
▁desde	-7.2884
▁gran	-7.29769
▁dunha	-7.30255
▁km	-7.31959
▁norte	-7.32877
▁era	-7.33232
da	-7.3384
▁dende	-7.34588
▁primeiro	-7.35
'	-7.3786
▁pero	-7.38651
▁cales	-7.38885
u	-7.39513
▁la	-7.39687
▁ainda	-7.40016
▁corunes	-7.40146
i	-7.40482
▁banda	-7.40509
▁-	-7.40538
c	-7.41188
▁sur	-7.42391
▁so	-7.42494
▁dous	-7.4271
▁este	-7.43255
▁illa	-7.43409
▁lingua	-7.43418
▁ata	-7.44963
▁seculo	-7.45254
▁suas	-7.45497
▁00.00000	-7.45526
▁terra	-7.49617
▁familia	-7.52418
es	-7.52932
▁despois	-7.53028
▁nada	-7.53529
▁politico	-7.54027
▁nacional	-7.54277
▁rexion	-7.54296
▁nun	-7.54866
▁estados	-7.55509
▁mundo	-7.56175
▁tres	-7.57105
▁-0.00000	-7.59868
▁foron	-7.60218
▁onde	-7.60275
▁duas	-7.61418
▁pais	-7.61807
▁xaneiro	-7.62122
▁estado	-7.62318
▁i	-7.62656
▁rio	-7.63261
t	-7.63906
▁maio	-7.63918
▁mesmo	-7.64693
▁internacional	-7.64699
▁outros	-7.6538
▁moi	-7.65755
▁album	-7.66386
▁galicia	-7.66392
▁supon	-7.66868
▁(00	-7.669
▁unidos	-7.67049
na	-7.67163
▁premio	-7.67614
mente	-7.6811
▁setembro	-7.6816
▁marzo	-7.68287
▁asi	-7.68343
▁historia	-7.68353
▁capital	-7.6868
▁xa	-7.69589
▁outubro	-7.70014
▁abril	-7.70291
▁centro	-7.72369
▁maior	-7.72463
▁decembro	-7.72663
no	-7.73042
▁xuno	-7.73076
▁instituto	-7.73486
▁xullo	-7.73668
▁agosto	-7.74475
▁espanol	-7.74777
▁nunha	-7.75319
▁0°00′00′′	-7.75369
▁equipo	-7.75745
▁situado	-7.7638
▁serie	-7.77247
▁todo	-7.78329
▁nova	-7.79457
▁rei	-7.79492
▁espana	-7.79679
▁cunha	-7.79727
▁novembro	-7.80032
▁mar	-7.81555
▁aos	-7.81728
▁coruna	-7.8178
▁relacion	-7.82638
▁febreiro	-7.83053
▁polos	-7.83312
▁0.000	-7.83964
▁carreira	-7.84276
▁edicion	-7.84364
d	-7.8444
▁conecida	-7.84949
▁ingles	-7.85068
▁cal	-7.85318
▁especie	-7.8632
▁traves	-7.86529
▁vez	-7.87038
▁numero	-7.87097
▁xenero	-7.87632
".	-7.87986
la	-7.88152
▁futbol	-7.88567
▁cos	-7.88805
▁galega	-7.88812
ndo	-7.88856
▁mellor	-7.89098
▁poden	-7.89358
▁sendo	-7.90022
",	-7.9033
▁(0	-7.90446
▁baixo	-7.90925
0	-7.91183
m	-7.91448
▁ate	-7.92527
▁santa	-7.9279
▁segunda	-7.92821
▁club	-7.92909
▁dirixido	-7.9314
y	-7.93895
▁rock	-7.94182
▁estan	-7.94395
▁hai	-7.94465
▁grande	-7.94492
ou	-7.95603
de	-7.95869
▁especies	-7.96132
ia	-7.97298
▁maria	-7.97709
▁termo	-7.98249
▁ademais	-7.98782
ba	-7.98807
▁guerra	-8.00376
▁lugues	-8.00661
▁of	-8.01132
▁cada	-8.0116
▁xunto	-8.01239
▁reino	-8.03134
▁sistema	-8.03178
▁situada	-8.033
▁el	-8.03631
/	-8.03667
▁outras	-8.03693
▁principal	-8.04277
▁c	-8.04358
▁catro	-8.04728
▁leste	-8.04777
▁m	-8.04973
▁ine	-8.06749
▁cara	-8.07229
▁tempada	-8.07411
▁sen	-8.07575
▁cun	-8.07962
ra	-8.07965
ta	-8.08516
▁formula	-8.0885
▁tenen	-8.08867
▁dia	-8.09279
▁coma	-8.09377
▁frances	-8.09587
▁superficie	-8.10099
▁santiago	-8.1045
▁diminucion	-8.11104
▁partido	-8.1113
ine	-8.1114
▁veces	-8.1249
▁escritor	-8.12522
▁europa	-8.12566
▁area	-8.13235
▁cha	-8.13483
▁contra	-8.13574
▁tanto	-8.13773
is	-8.13958
▁oeste	-8.14158
co	-8.1502
os	-8.15107
▁tipo	-8.15333
▁mesma	-8.16002
▁illas	-8.16152
▁antes	-8.16209
▁00.000	-8.16244
▁paises	-8.16482
▁conta	-8.16816
]	-8.17181
ron	-8.17515
▁referirse	-8.17538
b	-8.17636
k	-8.17954
▁in	-8.18466
▁musica	-8.18674
▁municipal	-8.18743
▁jose	-8.19291
▁espanola	-8.19439
▁ca	-8.20189
▁madrid	-8.20895
▁vila	-8.21331
▁grandes	-8.21333
▁persoas	-8.22018
▁republica	-8.22276
▁medio	-8.22286
▁mundial	-8.22412
▁campionato	-8.22547
▁varios	-8.22613
▁dentro	-8.22701
▁aeroporto	-8.22818
▁actual	-8.23059
to	-8.23338
▁tempo	-8.2341
▁orixe	-8.23618
te	-8.23825
on	-8.23915
▁respecto	-8.2422
▁actualmente	-8.24229
p	-8.245
▁millons	-8.24899
▁todos	-8.24917
▁goberno	-8.25285
▁tras	-8.26293
▁d	-8.26294
▁vida	-8.26855
▁television	-8.27199
lo	-8.27497
as	-8.27945
▁xoga	-8.2833
z	-8.28481
▁obra	-8.28561
▁lugo	-8.29064
an	-8.3014
▁liga	-8.30177
▁alcalde	-8.31014
▁ben	-8.31022
▁menos	-8.31588
h	-8.31672
▁premios	-8.31761
▁tivo	-8.3182
▁francia	-8.31951
▁chamado	-8.32295
▁diferentes	-8.32767
ca	-8.33015
▁mentres	-8.33019
▁atopase	-8.33543
▁si	-8.3357
▁importante	-8.33736
▁union	-8.33855
in	-8.34423
▁central	-8.35109
▁polas	-8.35128
▁moitos	-8.35214
dos	-8.35666
▁deste	-8.35695
▁real	-8.35757
▁b	-8.36207
▁profesional	-8.36859
▁pontevedres	-8.37154
▁xeral	-8.37155
▁igrexa	-8.37547
▁longo	-8.37571
▁zona	-8.37955
▁orde	-8.38097
▁principalmente	-8.38101
x	-8.3866
▁0000)	-8.38854
▁partir	-8.39038
▁vigo	-8.39196
▁alguns	-8.3922
▁titulo	-8.39507
▁publicado	-8.3953
▁grego	-8.3959
▁padron	-8.39662
▁universidade	-8.39948
▁maioria	-8.39993
▁celulas	-8.40456
▁exemplo	-8.40561
▁auga	-8.4101
▁division	-8.41293
▁final	-8.41765
▁metros	-8.41929
▁logo	-8.4248
▁pertencente	-8.42873
us	-8.42963
▁costa	-8.42972
▁debido	-8.43806
▁xogos	-8.4462
▁manuel	-8.44825
▁[	-8.44883
▁politica	-8.45015
▁novo	-8.45176
▁ter	-8.45404
▁ganou	-8.45726
f	-8.45735
▁castro	-8.46058
▁sede	-8.46165
▁cor	-8.46221
▁cinco	-8.46436
▁antigo	-8.46552
▁estatistica	-8.46559
▁selo	-8.46647
▁america	-8.46685
das	-8.47069
▁base	-8.47241
▁s	-8.47261
▁total	-8.47306
ar	-8.47313
▁baloncesto	-8.47358
▁periodo	-8.47813
▁varias	-8.48675
▁aleman	-8.48681
▁presidente	-8.4876
▁leon	-8.48958
▁principais	-8.49322
ma	-8.49438
▁re	-8.49621
▁muller	-8.49854
▁membro	-8.50109
▁ex	-8.50141
que	-8.50967
▁toponimo	-8.51113
▁media	-8.52704
▁morte	-8.52826
▁moitas	-8.52865
▁actor	-8.53159
▁comun	-8.53162
▁ii	-8.53272
▁distrito	-8.53581
▁barcelona	-8.53811
▁00.0000000	-8.54322
er	-8.54468
al	-8.54715
sa	-8.55038
▁preto	-8.5528
▁home	-8.55723
▁comezou	-8.56024
▁l	-8.56268
g	-8.56289
▁limita	-8.56304
▁estaba	-8.5706
▁(0000)	-8.57266
▁campo	-8.57568
▁estadistica	-8.57768
▁oscar	-8.57793
▁desta	-8.58293
▁editado	-8.59008
▁-0.0000000	-8.59228
▁popular	-8.59276
▁casa	-8.5956
▁prefectura	-8.59656
▁chamada	-8.59825
▁xogador	-8.60987
2	-8.61036
▁rodriguez	-8.61115
▁f	-8.61255
▁compostela	-8.61266
ria	-8.61342
▁desenvolvemento	-8.61387
▁uso	-8.61527
▁conxunto	-8.61738
▁nivel	-8.61841
▁inglesa	-8.61978
▁fai	-8.61984
▁fillo	-8.62418
▁membros	-8.62522
▁(000	-8.62712
▁traballo	-8.62991
▁antiga	-8.63304
▁imperio	-8.63363
▁festival	-8.63532
▁cancion	-8.6383
▁territorio	-8.63888
▁novela	-8.63912
▁ourensan	-8.64
▁coas	-8.64072
▁ourense	-8.64174
lle	-8.64328
▁decada	-8.64394
▁entidades	-8.64591
▁y	-8.64615
▁unido	-8.64765
▁000.000	-8.64997
le	-8.64999
▁x	-8.65123
▁records	-8.65322
▁finada	-8.65377
▁comunidade	-8.65411
▁porto	-8.65574
▁del	-8.65579
▁grupos	-8.65709
▁lista	-8.65852
v	-8.65948
▁york	-8.66354
▁t	-8.66594
▁terceiro	-8.668
▁xeito	-8.67189
ne	-8.67374
▁outra	-8.6746
▁outro	-8.67629
▁garcia	-8.67763
▁hoxe	-8.67849
▁mediante	-8.67932
▁lle	-8.68086
▁considerado	-8.68179
▁case	-8.68199
▁h	-8.68359
▁referencia	-8.68578
▁unico	-8.68946
▁director	-8.68954
man	-8.6918
▁condado	-8.69217
2.	-8.69382
▁disco	-8.69464
▁estes	-8.69592
▁algunhas	-8.69687
▁r	-8.69988
▁linguas	-8.7
▁n	-8.70746
▁localiza	-8.71363
▁cantante	-8.71561
▁p	-8.71843
▁xeralmente	-8.71978
▁alto	-8.72058
ga	-8.72172
▁al	-8.72245
▁movemento	-8.72531
▁escrito	-8.72546
re	-8.72864
▁francesa	-8.73003
▁xornalista	-8.7316
▁fora	-8.73375
▁italiano	-8.73387
mo	-8.73565
▁epoca	-8.73659
▁iso	-8.73698
▁finais	-8.7402
▁alta	-8.74061
▁importantes	-8.74093
▁occidental	-8.74152
▁latin	-8.74538
▁futbolista	-8.74768
▁punto	-8.74793
▁quilometros	-8.75125
▁competicion	-8.75128
▁corpo	-8.75281
▁anterior	-8.75293
▁proceso	-8.7566
▁di	-8.75857
▁municipio	-8.7624
▁equipos	-8.76353
▁papel	-8.76672
▁estreado	-8.76709
▁categoria	-8.76908
▁v	-8.76941
▁antonio	-8.77191
▁especialmente	-8.77222
▁and	-8.773
▁italia	-8.77374
cion	-8.77417
▁oficial	-8.77601
▁posicion	-8.77703
▁musical	-8.77707
▁organizacion	-8.78048
▁xapon	-8.78098
▁caso	-8.78121
▁departamento	-8.7814
▁arte	-8.78393
▁cinema	-8.78595
▁libro	-8.78643
▁val	-8.78692
▁isto	-8.78725
▁pouco	-8.78769
▁cultura	-8.78939
▁lugares	-8.79142
me	-8.79507
▁toda	-8.79542
▁natural	-8.79589
▁seis	-8.79699
▁ruso	-8.79877
▁alemana	-8.80025
▁finalmente	-8.80201
compren	-8.8025
▁nomeado	-8.80426
▁militar	-8.80491
▁capacidade	-8.80632
▁primeiros	-8.80942
▁00.000000	-8.80998
▁(0000),	-8.81237
▁john	-8.81263
▁monte	-8.81325
▁producion	-8.81429
▁animais	-8.81748
▁exito	-8.81753
▁formado	-8.81932
▁todas	-8.81954
▁neste	-8.82377
▁estreou	-8.8241
▁deles	-8.82416
▁pontevedra	-8.82593
▁distribuidos	-8.82699
res	-8.82876
▁baseado	-8.82944
▁actriz	-8.83718
▁obras	-8.84028
▁ferrol	-8.84065
▁estilo	-8.84362
▁seleccion	-8.84505
▁-0.000000	-8.84561
▁densidade	-8.84766
▁paris	-8.85041
▁posteriormente	-8.85132
▁idade	-8.85521
di	-8.85668
▁poren	-8.85725
▁calquera	-8.85973
ismo	-8.86316
▁cabo	-8.86377
▁significa	-8.86457
▁pedro	-8.86515
ing	-8.86756
▁poder	-8.87088
▁protagonizado	-8.87293
▁recibiu	-8.87389
▁fernandez	-8.87436
▁lina	-8.87766
▁adn	-8.87982
▁proteinas	-8.88178
▁version	-8.88228
▁terceira	-8.88382
▁pobo	-8.88463
▁le	-8.88702
ch	-8.88733
▁ouro	-8.88853
▁social	-8.88933
")	-8.89069
go	-8.89152
son	-8.89229
ro	-8.8939
▁estudio	-8.89433
▁luis	-8.89441
▁modelo	-8.89456
ce	-8.90396
▁pertence	-8.90519
▁fundado	-8.90532
ban	-8.9076
▁dias	-8.90807
▁to	-8.91247
▁man	-8.91253
▁inclue	-8.91407
▁unica	-8.91467
▁tamano	-8.91551
▁'	-8.92325
▁humanos	-8.92714
▁copa	-8.92779
▁carlos	-8.93057
▁plantas	-8.93201
▁local	-8.93204
▁g	-8.93407
▁j	-8.94173
▁lanzado	-8.94194
▁superior	-8.9441
▁pequeno	-8.94645
▁xx	-8.94706
ter	-8.94767
▁producido	-8.94811
ka	-8.95132
va	-8.95296
▁orixinal	-8.95655
▁portugal	-8.96034
▁francisco	-8.96067
▁britanico	-8.961
▁00%	-8.96329
▁pai	-8.9638
▁estrutura	-8.96387
▁ver	-8.96409
▁aumento	-8.96601
▁filmes	-8.96665
▁castela	-8.96722
▁mor	-8.96929
za	-8.96939
▁africa	-8.97114
un	-8.97525
▁estadio	-8.97578
▁funcion	-8.97711
▁dicir	-8.97741
▁formada	-8.98056
▁inglaterra	-8.98165
▁0,0	-8.98193
▁feito	-8.98412
▁k	-8.9856
▁rugby	-8.98562
▁conten	-8.98666
▁acido	-8.9876
▁quen	-8.99851
w	-8.99853
▁oriental	-8.99855
▁propio	-9.00026
▁representa	-9.00145
▁aproximadamente	-9.00194
▁sete	-9.00317
▁formacion	-9.00488
ni	-9.00679
▁cultural	-9.00719
km	-9.00736
▁pequena	-9.01342
▁incluindo	-9.01513
▁converteuse	-9.01767
▁ultimo	-9.01898
▁aparece	-9.01905
li	-9.02473
▁fundada	-9.02504
▁enton	-9.02506
ri	-9.02982
▁tratase	-9.03245
▁(0000).	-9.0337
▁estas	-9.03803
▁altura	-9.03924
▁construcion	-9.03959
▁espazo	-9.03959
▁castelan	-9.03989
ti	-9.04128
▁juan	-9.04149
▁fin	-9.04179
pa	-9.04221
▁creado	-9.04254
▁piloto	-9.04769
▁empresa	-9.04914
▁elementos	-9.04958
▁forman	-9.05052
▁00°00′	-9.05212
▁china	-9.05258
▁existen	-9.0526
ton	-9.05282
▁escrita	-9.05507
▁programa	-9.05636
▁londres	-9.05649
▁0000).	-9.0599
▁fixo	-9.06025
▁sinxelo	-9.06085
▁-00.00000	-9.06453
▁literatura	-9.06513
▁localidade	-9.06639
00	-9.06719
▁partidos	-9.0672
▁roma	-9.06723
▁0,00	-9.06969
▁campion	-9.07065
▁posto	-9.07117
▁actualidade	-9.0713
▁maxima	-9.07419
▁bergantinos	-9.07531
▁mexico	-9.07971
▁estivo	-9.08398
▁humano	-9.08425
▁olimpicos	-9.08446
▁ppdeg	-9.08451
▁xogo	-9.08459
▁estudo	-9.08529
▁bo	-9.0853
▁momento	-9.08534
▁tan	-9.08897
▁circuito	-9.08911
▁arredor	-9.09197
nos	-9.09329
▁teatro	-9.0943
mi	-9.09626
▁interior	-9.0985
▁compania	-9.1045
▁teoria	-9.10839
▁pe	-9.11079
▁santo	-9.1109
▁mellores	-9.11143
▁facer	-9.11207
▁poeta	-9.11216
▁enerxia	-9.11339
▁australia	-9.11507
▁composto	-9.11526
▁actividade	-9.11779
ko	-9.11882
▁cataluna	-9.11916
▁marina	-9.11937
▁etc	-9.12003
▁vi	-9.12079
▁pro	-9.12207
▁iii	-9.12297
▁diversos	-9.12337
▁noroeste	-9.12785
▁propia	-9.12815
▁arabe	-9.13
ver	-9.13027
▁europea	-9.13031
▁oceano	-9.13408
▁luz	-9.13555
▁peninsula	-9.13709
▁lonxitude	-9.13977
▁parque	-9.14262
▁autor	-9.14426
▁xix	-9.14461
▁gonzalez	-9.14699
▁informacion	-9.14769
ista	-9.14918
nse	-9.1502
▁normalmente	-9.1514
▁palabra	-9.15279
▁puntos	-9.15508
con	-9.15519
▁hockey	-9.15682
▁menor	-9.15871
▁revista	-9.15877
▁metal	-9.15902
▁cine	-9.15906
▁van	-9.16
▁00°00′00.0′′	-9.16065
▁participou	-9.16196
▁barrio	-9.16333
▁asociacion	-9.16413
xe	-9.16415
pe	-9.1644
▁espacial	-9.16722
▁david	-9.16778
▁ultima	-9.16996
▁proxecto	-9.17068
▁sociedade	-9.17152
▁betanzos	-9.17185
bo	-9.17459
▁lei	-9.17503
▁persoa	-9.17693
▁tal	-9.1798
▁moito	-9.18052
▁{\	-9.18167
▁u	-9.1817
ina	-9.18257
▁museo	-9.18334
▁creada	-9.18367
so	-9.18465
ge	-9.18722
▁baixa	-9.18723
▁publicada	-9.18756
▁opera	-9.18838
▁alternativo	-9.18991
shi	-9.19195
▁data	-9.19213
▁xoan	-9.19302
▁zonas	-9.19325
▁sueste	-9.19682
▁asia	-9.19704
▁xogaba	-9.19781
▁sol	-9.19914
▁me	-9.19933
▁civil	-9.2007
▁xapones	-9.20137
▁orixinalmente	-9.20166
mos	-9.20206
▁independente	-9.20272
▁tradicional	-9.20278
▁concellos	-9.20311
▁compositor	-9.20643
▁eleccions	-9.20757
▁escritora	-9.21129
▁clase	-9.21143
ado	-9.21164
▁ponte	-9.21245
ja	-9.21285
▁lopez	-9.21594
▁servizo	-9.21659
▁pre	-9.21705
▁proteina	-9.2176
▁fronte	-9.21787
▁india	-9.21829
▁atopa	-9.21838
▁eles	-9.21864
▁brasil	-9.22108
▁rexions	-9.22139
▁carreiras	-9.22278
▁chegou	-9.22282
▁estrada	-9.22454
▁posue	-9.22686
▁deportivo	-9.22716
▁porque	-9.22828
▁canada	-9.229
▁partes	-9.2292
▁vasco	-9.22942
▁resultado	-9.2302
▁motor	-9.23059
▁romano	-9.23141
▁galiza	-9.23213
j	-9.23267
▁senon	-9.23308
-00	-9.23367
ada	-9.234
▁publico	-9.23429
▁diversas	-9.23536
▁=	-9.23562
▁ha	-9.23621
▁arxentina	-9.2365
▁vitoria	-9.23731
el	-9.23759
▁distancia	-9.24009
▁sexa	-9.2408
▁forza	-9.2419
▁dereito	-9.24223
▁estacion	-9.24292
th	-9.24382
▁tarde	-9.24553
▁temas	-9.24557
▁pasou	-9.24646
▁accion	-9.24749
▁considerada	-9.24897
▁league	-9.24916
nte	-9.25123
▁nesta	-9.25175
▁catalan	-9.25375
▁cidades	-9.25633
▁radio	-9.2574
▁planta	-9.25781
▁candidato	-9.25813
▁sub	-9.25837
▁debe	-9.25938
cha	-9.25996
▁dereitos	-9.26015
▁lago	-9.26094
▁resto	-9.26204
ve	-9.26221
▁cuarto	-9.26266
tamen	-9.26362
▁augas	-9.26388
ha	-9.26453
-0	-9.26491
▁rusia	-9.26531
▁obxectivo	-9.26548
▁libre	-9.26861
vi	-9.27011
▁defensa	-9.27394
▁cambio	-9.27501
▁martin	-9.278
▁fonte	-9.27802
dor	-9.27865
▁estudos	-9.27896
▁caracteristicas	-9.27978
▁estrea	-9.28031
▁batalla	-9.28125
▁tipos	-9.28469
▁portugues	-9.28485
▁servizos	-9.2869
▁hab	-9.2892
▁sempre	-9.28923
▁miguel	-9.28984
io	-9.29185
▁ciencia	-9.29191
▁oficialmente	-9.292
▁via	-9.29335
▁creacion	-9.29372
▁adoita	-9.29607
▁lo	-9.298
ki	-9.29899
▁compite	-9.29996
▁control	-9.30006
style	-9.30014
▁cancions	-9.3003
▁bandeira	-9.30093
▁national	-9.30636
▁vilalba	-9.3072
psoe	-9.30934
▁cruz	-9.30964
▁aves	-9.31001
▁xeo	-9.31206
▁critica	-9.31223
▁profesor	-9.31302
▁investigacion	-9.31307
▁foguete	-9.31307
▁extension	-9.31641
▁composta	-9.31862
▁presente	-9.31944
▁escollido	-9.32011
▁cadea	-9.32079
▁publica	-9.32273
▁pesar	-9.32274
▁los	-9.32493
▁comercial	-9.32654
▁00,00	-9.32679
▁estar	-9.32774
▁personaxe	-9.32779
▁dita	-9.33032
▁economia	-9.3311
ya	-9.3327
▁especial	-9.33323
display	-9.33405
▁comprende	-9.33421
▁suroeste	-9.33423
▁pasaxeiros	-9.33429
▁celula	-9.33452
▁oito	-9.33494
▁pan	-9.33791
▁britanica	-9.33894
▁pop	-9.3409
▁avogado	-9.34115
→	-9.34265
▁go	-9.34361
por	-9.34884
▁albums	-9.35011
▁existe	-9.35146
▁nin	-9.35164
▁xose	-9.3524
▁igual	-9.354
▁cuxa	-9.35457
▁extremo	-9.3549
▁cargo	-9.35503
▁escola	-9.35538
▁rede	-9.35613
▁ocasions	-9.3565
▁material	-9.35784
▁altitude	-9.35929
▁irlanda	-9.35958
▁bretana	-9.36169
▁ministro	-9.36237
rio	-9.36286
▁0000-00	-9.36525
▁independencia	-9.3657
▁quimica	-9.36616
the	-9.36708
▁formas	-9.36741
▁acordo	-9.36941
▁diferenza	-9.37201
▁mino	-9.3727
▁leva	-9.37329
der	-9.37352
▁bacterias	-9.37373
▁caracter	-9.37411
▁fisica	-9.37493
▁grega	-9.37518
▁conecidos	-9.37598
▁serra	-9.37669
▁per	-9.37702
▁tema	-9.37989
▁figura	-9.38011
▁academia	-9.38116
▁artigo	-9.38183
▁michael	-9.38529
▁malia	-9.38557
▁marca	-9.38671
▁causa	-9.38731
ica	-9.38739
mento	-9.38916
▁obxecto	-9.39019
▁for	-9.39047
▁casos	-9.39067
▁valor	-9.39241
▁cantidade	-9.39264
▁imaxes	-9.39389
▁irman	-9.39626
▁castelo	-9.39733
idade	-9.39757
▁miudo	-9.39757
▁propiedade	-9.3985
ico	-9.39905
▁exercito	-9.3995
▁torneo	-9.39952
▁ningun	-9.4009
zo	-9.40349
▁mercado	-9.40363
▁metade	-9.4044
▁("	-9.40977
▁tempos	-9.4099
los	-9.41018
▁seguinte	-9.41036
▁recibe	-9.41061
▁perez	-9.41114
ita	-9.41146
▁james	-9.41275
▁redor	-9.41459
▁clasificacion	-9.41478
▁industrial	-9.41624
▁federacion	-9.41742
▁unidade	-9.41751
▁arn	-9.41755
▁censo	-9.41823
las	-9.42198
▁torre	-9.42281
▁te	-9.42375
▁catolica	-9.42542
▁seria	-9.42637
▁deseno	-9.42705
▁historica	-9.42731
ur	-9.42749
ran	-9.4278
▁fronteira	-9.42939
▁complexo	-9.42955
▁autonoma	-9.43116
▁distribucion	-9.43221
▁super	-9.43543
ir	-9.43658
▁primeiras	-9.43667
▁denominacion	-9.43737
ke	-9.43851
land	-9.43853
▁areas	-9.43938
▁consiste	-9.43966
▁ramon	-9.44014
▁constitucion	-9.44081
▁proba	-9.44113
▁edificio	-9.44152
▁principios	-9.44344
▁mestre	-9.44367
ed	-9.44428
▁000,00	-9.44482
idae	-9.44558
fa	-9.44774
▁ven	-9.448
be	-9.44907
▁podese	-9.44908
▁direccion	-9.45059
▁celular	-9.45302
▁sistemas	-9.45307
▁ciencias	-9.45363
▁permite	-9.45396
▁aldea	-9.45407
▁serve	-9.45654
▁po	-9.45656
▁canle	-9.45677
che	-9.457
um	-9.45769
▁conseguiu	-9.45832
▁du	-9.45964
▁usado	-9.45988
▁new	-9.46616
▁arquipelago	-9.46629
▁moeda	-9.4667
▁lider	-9.46854
▁comite	-9.47085
▁anteriormente	-9.4716
▁00°00′00.00′′	-9.47164
▁atlantico	-9.47388
chi	-9.47427
▁chantada	-9.47538
▁historico	-9.47572
▁consello	-9.47689
▁rios	-9.47983
▁nucleo	-9.4806
▁natureza	-9.48153
nes	-9.48261
▁musico	-9.48487
▁practica	-9.48493
▁be	-9.48592
▁industria	-9.48862
▁maiores	-9.49206
▁finlandia	-9.493
▁produce	-9.49325
▁presenza	-9.49333
si	-9.49367
▁robert	-9.49559
▁dinastia	-9.49687
▁ultimos	-9.4973
▁crecemento	-9.4981
);	-9.4998
▁deus	-9.50142
▁ribeira	-9.5016
▁pequenas	-9.50189
il	-9.50295
▁influencia	-9.50296
▁pintor	-9.50298
▁produtos	-9.50488
▁baixos	-9.50594
▁filla	-9.50615
▁publicou	-9.50866
▁internacionais	-9.50899
▁novas	-9.50927
▁sa	-9.51119
▁camino	-9.51137
▁iv	-9.51213
▁emperador	-9.51234
▁europeo	-9.51289
▁mes	-9.51336
▁bar	-9.51344
▁ne	-9.51423
▁0°00′00.0′′	-9.5155
▁formou	-9.51592
▁masa	-9.51601
▁can	-9.5161
▁artes	-9.51672
▁concepto	-9.51825
▁organismos	-9.51829
▁formar	-9.52151
▁importancia	-9.52207
▁ave	-9.52299
▁nomes	-9.52338
▁pois	-9.52479
▁canto	-9.52489
▁nacions	-9.52748
▁honra	-9.52781
▁ali	-9.52864
▁peixes	-9.52877
▁fe	-9.52946
▁titulos	-9.52981
▁lu	-9.52996
▁sovietica	-9.53087
sen	-9.53243
bi	-9.53274
▁homonima	-9.53341
ci	-9.53443
▁interese	-9.53455
▁cuxo	-9.53472
▁acadou	-9.53532
▁dominio	-9.5367
▁doce	-9.53695
▁forzas	-9.53874
▁voo	-9.53878
▁libros	-9.53939
▁sentido	-9.54144
▁espectadores	-9.54204
▁paso	-9.54231
▁vista	-9.54234
▁medico	-9.54234
▁fernando	-9.54416
▁expresion	-9.54445
▁parlamento	-9.54505
▁funcions	-9.54604
rse	-9.54977
▁cabeza	-9.55042
▁ko	-9.55044
▁mision	-9.55044
les	-9.5515
▁simplemente	-9.55188
▁baseada	-9.55242
▁mitoloxia	-9.55263
▁adestrador	-9.55341
▁numerosos	-9.55393
du	-9.55487
0,	-9.55588
▁artista	-9.55716
▁california	-9.55724
▁arriba	-9.55887
▁xunta	-9.55934
▁utilizado	-9.56074
▁distintas	-9.56129
▁periodico	-9.56236
▁abrangue	-9.56422
▁seculos	-9.56541
▁grecia	-9.56545
tes	-9.56573
▁00,0	-9.56605
▁colombia	-9.5666
▁carballo	-9.56662
▁ambos	-9.56861
▁sal	-9.5693
▁lua	-9.57042
▁veran	-9.57076
▁evolucion	-9.57132
▁variedade	-9.57286
▁tradicion	-9.57365
▁lanzamento	-9.57496
▁produtor	-9.57605
▁xeneros	-9.57746
▁longa	-9.57795
tico	-9.57833
▁grazas	-9.57865
ku	-9.5789
▁conde	-9.57946
tu	-9.58032
▁fase	-9.58061
▁velocidade	-9.58106
▁inicialmente	-9.58446
▁revolucion	-9.5852
▁nai	-9.58598
▁abaixo	-9.58684
▁nove	-9.58688
▁provincias	-9.58689
▁olimpico	-9.58907
▁modo	-9.59061
▁denominado	-9.59118
▁chan	-9.59154
▁pacifico	-9.59173
▁pelicula	-9.5921
▁pena	-9.59268
mer	-9.59315
ry	-9.59364
▁montana	-9.59373
(	-9.59405
des	-9.59555
▁comuna	-9.59582
mar	-9.59773
▁vive	-9.59796
▁paz	-9.59807
▁fontes	-9.59872
▁viven	-9.6025
▁car	-9.60269
▁par	-9.60391
▁verde	-9.60415
▁martinez	-9.60439
▁medida	-9.60461
▁deriva	-9.60477
▁rally	-9.60567
gi	-9.60617
▁organismo	-9.60648
▁pequenos	-9.60837
▁numerosas	-9.60847
▁falecido	-9.60946
▁membrana	-9.60979
▁cd	-9.61045
ck	-9.61049
▁consta	-9.61115
po	-9.61217
▁fundou	-9.61221
▁paul	-9.61235
▁xefe	-9.61301
▁anti	-9.61306
▁destes	-9.61347
▁campos	-9.61401
▁noia	-9.61447
▁li	-9.6152
▁william	-9.61606
▁fala	-9.61632
tica	-9.61678
▁denominase	-9.61761
▁arquitectura	-9.61884
tra	-9.62018
▁tri	-9.62026
use	-9.62036
▁editorial	-9.62081
▁pedra	-9.62097
▁tvg	-9.62191
pi	-9.62201
▁deporte	-9.62222
qui	-9.62257
▁doutros	-9.62269
▁negro	-9.62342
▁+	-9.62631
▁satelite	-9.62662
ian	-9.62731
▁moderna	-9.62748
▁rua	-9.62832
▁actividades	-9.62917
▁punk	-9.62928
▁traballos	-9.62943
▁mac	-9.63019
▁comezos	-9.63086
▁nunca	-9.63118
▁alema	-9.63249
▁patrimonio	-9.63334
▁calendario	-9.63339
xa	-9.63403
▁planeta	-9.63631
▁lado	-9.63823
▁ciclo	-9.63946
?)	-9.63997
▁seguintes	-9.64041
▁anxeles	-9.64077
▁comunicacion	-9.64143
▁mal	-9.64218
▁fundador	-9.64238
▁distintos	-9.64349
▁vai	-9.64388
▁romana	-9.64392
▁psdeg	-9.64491
▁mo	-9.64531
ner	-9.64567
▁reconecemento	-9.64685
▁fan	-9.6471
▁forte	-9.64726
car	-9.64727
▁ocupa	-9.64803
▁branco	-9.64812
▁su	-9.6495
▁proven	-9.64984
▁entidade	-9.65101
▁agora	-9.65206
▁decimo	-9.65249
▁outeiro	-9.65304
▁z	-9.65313
▁novos	-9.65446
▁baia	-9.65507
▁vecinos	-9.65667
▁w	-9.65686
▁chegar	-9.65687
▁trata	-9.65691
▁condicions	-9.65735
▁letras	-9.66036
fi	-9.66132
▁medios	-9.66136
▁aires	-9.66158
ira	-9.66273
▁fundacion	-9.6643
▁mil	-9.66481
▁cm	-9.66486
▁voz	-9.66668
▁raina	-9.66733
pp	-9.66754
▁fondo	-9.66788
▁artistas	-9.66819
▁sueco	-9.66833
▁ta	-9.66853
▁guion	-9.66858
▁xenes	-9.67266
compre	-9.67425
▁pobos	-9.67579
!	-9.67635
▁praia	-9.67645
▁deza	-9.67729
▁problemas	-9.67852
wa	-9.6797
▁transporte	-9.68001
ino	-9.68029
▁animal	-9.68133
▁termos	-9.68183
▁producida	-9.68218
▁localizado	-9.68228
▁autores	-9.68286
vo	-9.68339
▁portuguesa	-9.685
▁medieval	-9.68523
▁humana	-9.6867
▁azul	-9.68818
▁valencia	-9.68852
▁volta	-9.68931
eiro	-9.69072
jo	-9.69175
ronse	-9.6931
▁carbono	-9.69473
▁chamados	-9.69483
▁presenta	-9.69598
lla	-9.69624
or	-9.6982
▁pel	-9.69831
▁salvador	-9.69878
▁italiana	-9.69892
▁montes	-9.69976
den	-9.70015
▁territorios	-9.70058
▁sociais	-9.7008
▁mi	-9.70131
▁obxectos	-9.70187
▁sangue	-9.70216
▁existencia	-9.70252
▁cientifico	-9.70338
▁ma	-9.70362
▁brasileiro	-9.70583
▁virus	-9.70677
▁meses	-9.70714
idos	-9.708
▁elemento	-9.70817
▁escocia	-9.71006
izacion	-9.71032
▁maneira	-9.71042
▁suiza	-9.71068
▁construido	-9.71138
▁sar	-9.71157
▁contido	-9.71199
▁beira	-9.71217
lin	-9.71287
▁avion	-9.71371
▁guitarrista	-9.71394
▁estrela	-9.71797
et	-9.71941
▁imaxe	-9.71963
▁naceu	-9.71966
▁quinto	-9.72012
▁mamiferos	-9.72033
▁desenvolvido	-9.72063
como	-9.72108
california	-9.72152
▁tecnica	-9.72153
▁asturias	-9.72162
▁codigo	-9.72221
▁dirixida	-9.72303
▁comuns	-9.72423
▁moleculas	-9.72689
▁empresario	-9.72727
▁trala	-9.72796
▁chines	-9.72829
▁inferior	-9.72874
▁gales	-9.72895
▁adoitan	-9.72952
▁dez	-9.73033
▁branca	-9.73141
▁vexase	-9.73159
ru	-9.73198
▁incluen	-9.73263
▁naturais	-9.73281
▁boa	-9.73298
▁temperatura	-9.73475
▁artificial	-9.73573
▁duns	-9.7365
▁praza	-9.73754
xo	-9.73782
▁jean	-9.73813
▁personaxes	-9.73975
cos	-9.7398
tor	-9.74055
▁ferro	-9.74075
▁simbolo	-9.7409
▁accidente	-9.74177
▁diferente	-9.74185
▁vilar	-9.74408
▁relacions	-9.74427
▁americano	-9.74601
castela	-9.74606
▁conecidas	-9.74697
ida	-9.74785
cio	-9.74943
▁falada	-9.74969
▁martino	-9.75008
▁ficcion	-9.75041
▁ante	-9.75045
▁pontes	-9.75068
▁cuarta	-9.75264
▁xogou	-9.75508
▁terras	-9.75527
▁animacion	-9.75741
▁publicacion	-9.76115
▁george	-9.76132
▁metropolitana	-9.76244
▁representacion	-9.76247
▁antigos	-9.76248
▁subfamilia	-9.76348
▁refirese	-9.76429
▁00.000,	-9.76433
▁medalla	-9.76456
▁principio	-9.76586
▁he	-9.76586
▁nobel	-9.76603
}	-9.76611
▁eume	-9.76703
▁inter	-9.76831
▁bispo	-9.76854
▁principe	-9.76865
▁administrativa	-9.7687
▁reis	-9.76886
▁inverno	-9.77056
▁disputou	-9.77177
▁cambios	-9.77293
▁ganar	-9.77294
▁apareceu	-9.77426
nas	-9.77463
▁levou	-9.77536
▁alvarez	-9.77541
▁&	-9.77575
▁esquerda	-9.77584
▁todolo	-9.77623
▁austria	-9.77631
▁canadense	-9.77727
dia	-9.77912
▁ka	-9.77918
▁elixido	-9.77926
▁tales	-9.77935
▁habitante	-9.78048
▁fc	-9.78083
▁post	-9.78206
▁vazquez	-9.78269
▁lemos	-9.78301
▁conece	-9.78343
▁aire	-9.78349
▁exipto	-9.78383
▁meirande	-9.78422
▁cores	-9.78511
▁morreu	-9.7853
▁chile	-9.78788
▁formando	-9.7881
▁educacion	-9.78882
eira	-9.78899
▁bu	-9.78994
q	-9.79016
▁poucos	-9.79029
▁similar	-9.79098
▁fillos	-9.79174
▁sevilla	-9.79202
tos	-9.79296
▁contaba	-9.79309
▁nalguns	-9.79363
▁lalin	-9.79364
▁arousa	-9.79374
-000	-9.79424
▁linguistica	-9.79449
▁algo	-9.79528
▁aragon	-9.79543
ten	-9.79624
▁particular	-9.79654
▁bueno	-9.79769
▁trans	-9.7979
▁reconecido	-9.79795
▁participacion	-9.79807
▁federal	-9.79807
▁cientifica	-9.79882
▁economica	-9.79888
▁loita	-9.799
▁coroa	-9.79974
▁celanova	-9.79993
▁encima	-9.80042
▁suecia	-9.80158
▁(0000	-9.802
ndose	-9.80202
▁linguaxe	-9.80294
▁socialista	-9.80348
▁sant	-9.80364
▁posterior	-9.80391
▁efecto	-9.80449
▁ortigueira	-9.80626
▁produto	-9.80642
▁empregado	-9.80646
▁fisico	-9.80675
▁sitio	-9.807
▁irlandes	-9.80712
xi	-9.80839
▁association	-9.8087
▁peso	-9.80876
▁destas	-9.80994
▁realizar	-9.81004
ly	-9.81028
▁mediados	-9.81206
▁madeira	-9.81265
▁edicions	-9.81317
ley	-9.81346
▁aparecen	-9.81365
▁xene	-9.81596
▁0°00′00.00′′	-9.81619
▁seccion	-9.81633
▁tecnicas	-9.81683
▁papa	-9.81751
▁ra	-9.81753
▁xerais	-9.81765
▁web	-9.81786
▁sexual	-9.81846
▁regular	-9.81929
▁apoio	-9.81999
▁marino	-9.82062
▁coleccion	-9.82178
▁congreso	-9.82211
▁ganador	-9.82253
▁considerase	-9.82285
▁palabras	-9.82289
bel	-9.82383
tion	-9.82396
ho	-9.82452
▁xogadores	-9.82458
▁prata	-9.82577
cho	-9.82749
▁vicente	-9.82769
▁probas	-9.82784
fe	-9.82858
▁constitue	-9.82864
ados	-9.82939
▁texto	-9.83009
▁unidades	-9.83125
▁producir	-9.83126
▁anteriores	-9.83178
ais	-9.83203
▁nacionais	-9.83289
▁saint	-9.83295
▁franco	-9.83371
▁historiador	-9.83393
▁mu	-9.83426
▁ela	-9.83433
▁fusion	-9.83477
▁atopanse	-9.83559
▁belxica	-9.83569
▁estaban	-9.83574
▁localizada	-9.83575
▁efectos	-9.83605
▁gas	-9.83643
[	-9.83731
▁segue	-9.83733
▁mosteiro	-9.83898
▁compostos	-9.83925
▁auto	-9.83967
cia	-9.84102
▁arzua	-9.84175
▁procesos	-9.84319
ji	-9.84389
▁tratado	-9.84415
▁charles	-9.84442
▁realidade	-9.84601
cu	-9.8466
▁situacion	-9.84686
▁carga	-9.84752
▁sts	-9.84779
▁ana	-9.84816
▁richard	-9.85071
▁acceso	-9.85075
▁escudo	-9.85088
▁red	-9.85134
▁xviii	-9.85142
▁berlin	-9.8515
▁nese	-9.85276
▁semellante	-9.85354
bu	-9.85372
▁reinado	-9.85417
▁mediterraneo	-9.85484
it	-9.85545
▁estruturas	-9.85597
▁arquitecto	-9.85606
▁celebrada	-9.85778
per	-9.86145
▁capela	-9.8616
▁world	-9.8618
▁mestura	-9.86227
▁obtivo	-9.86269
▁frecuencia	-9.86282
tar	-9.86291
▁crear	-9.86392
▁pa	-9.86441
llo	-9.86501
▁humanidade	-9.86548
▁ferrari	-9.86572
tas	-9.86612
▁ti	-9.86731
▁nordeste	-9.86958
▁pasa	-9.87051
▁bateria	-9.87065
▁0000),	-9.87153
▁air	-9.87167
▁reaccion	-9.87228
▁ar	-9.87265
▁sector	-9.87277
▁xaponesa	-9.87295
▁peter	-9.87399
2,	-9.87633
▁carballino	-9.88002
▁maximo	-9.88055
he	-9.88197
▁arxentino	-9.88294
▁poderia	-9.88416
▁etapa	-9.8844
▁von	-9.8848
id	-9.88527
sh	-9.88561
▁logrou	-9.88561
▁posible	-9.88666
▁ho	-9.8874
ntes	-9.88768
▁quinta	-9.88814
▁ordes	-9.89053
ble	-9.89054
▁rematou	-9.89083
▁entrada	-9.89148
▁rama	-9.89231
▁follas	-9.8933
ie	-9.89366
▁famoso	-9.89401
▁unidas	-9.89465
▁procedente	-9.89567
▁(0000-0000),	-9.89666
▁doutras	-9.89815
▁mans	-9.89887
▁burgos	-9.89921
▁comezo	-9.89972
▁celta	-9.89997
▁denominada	-9.90019
▁celebrouse	-9.90056
▁flores	-9.90089
▁filosofia	-9.90184
▁seguridade	-9.90192
▁numeros	-9.90197
▁orbita	-9.90269
▁duque	-9.90276
▁escribiu	-9.90291
cer	-9.90314
▁ampla	-9.90341
▁xvi	-9.90366
▁utiliza	-9.90392
▁procede	-9.90403
▁tu	-9.90431
▁dar	-9.90445
▁restos	-9.90481
▁ni	-9.90558
▁axuda	-9.90582
ano	-9.90584
▁creou	-9.90586
▁soiuz	-9.9059
▁descenso	-9.906
▁materiais	-9.9062
▁xi	-9.90631
▁mesmos	-9.90675
▁dianteiro	-9.90734
▁aerolina	-9.90794
▁daniel	-9.90898
▁diametro	-9.91017
▁europeos	-9.91034
▁ambiente	-9.9108
▁escala	-9.9113
▁xira	-9.91139
市	-9.91144
▁las	-9.91181
▁clubs	-9.91208
▁clasica	-9.91225
▁nel	-9.91271
▁soa	-9.91302
▁xiii	-9.91415
iro	-9.91438
▁individuos	-9.91443
▁bi	-9.91528
▁poli	-9.91553
▁curso	-9.91698
▁vinte	-9.91709
▁referir	-9.91742
▁materia	-9.91934
▁encontra	-9.91955
▁caracteristica	-9.92062
ana	-9.92103
▁golfo	-9.92177
▁guionista	-9.92295
▁jo	-9.92325
▁medicina	-9.92426
▁ba	-9.92457
▁satelites	-9.92492
▁negra	-9.92494
st	-9.92508
▁usa	-9.92523
▁calidade	-9.92567
000	-9.92693
ad	-9.92705
▁esa	-9.92851
tivo	-9.92884
▁oficiais	-9.92975
don	-9.93037
▁letra	-9.93089
▁camara	-9.93106
▁les	-9.93136
▁polonia	-9.93157
▁situase	-9.93195
▁basketball	-9.9339
▁saude	-9.93567
▁lanzada	-9.93573
▁mas	-9.93682
▁administracion	-9.9379
▁comercio	-9.93819
▁presion	-9.93952
▁iberica	-9.93959
▁angel	-9.94021
ido	-9.94104
▁bordo	-9.94117
▁musicais	-9.94138
▁ambito	-9.94217
▁pazo	-9.94244
cal	-9.94246
▁universal	-9.94357
lgunhas	-9.94441
tus	-9.94446
▁enfermidade	-9.9466
▁facendo	-9.94726
▁veiga	-9.95109
▁st	-9.95123
▁casas	-9.95187
▁propiedades	-9.95234
▁cromosoma	-9.95544
▁peixe	-9.9557
▁ria	-9.95762
▁componentes	-9.9578
▁(0000-0000)	-9.95821
▁pilotos	-9.95909
▁seres	-9.95953
nt	-9.95953
▁competiu	-9.95981
▁my	-9.96099
▁ningunha	-9.9614
▁metodo	-9.96258
▁copias	-9.9628
lu	-9.96283
▁estrelas	-9.96291
▁estreito	-9.96424
▁composicion	-9.96429
▁secuencia	-9.96441
▁latina	-9.96589
tro	-9.96592
▁indie	-9.96819
▁navarra	-9.96897
▁ruta	-9.97011
▁vocalista	-9.97035
▁molecula	-9.97047
▁cobre	-9.9709
▁amplamente	-9.97199
▁vello	-9.97224
▁limia	-9.97268
▁relixioso	-9.97321
non	-9.97393
ros	-9.97402
fer	-9.97402
▁corte	-9.97469
▁vermello	-9.97486
▁-00.000	-9.9756
▁pobra	-9.97601
▁rusa	-9.97607
▁marco	-9.97631
iata	-9.97656
fo	-9.9766
▁continua	-9.97687
▁is	-9.97907
▁00°00′0′′	-9.98038
▁movementos	-9.98047
▁chamadas	-9.98089
ura	-9.98209
▁cu	-9.98222
▁fa	-9.98258
▁dito	-9.98363
▁actuais	-9.98367
▁dereita	-9.98373
▁xeracion	-9.98391
▁arbore	-9.98556
▁ga	-9.98564
▁fonsagrada	-9.98635
▁andalucia	-9.98651
▁xenetica	-9.98656
▁videoxogo	-9.98661
▁traballou	-9.98748
▁bandas	-9.98749
▁thomas	-9.98787
▁elas	-9.98939
▁obter	-9.98943
▁templo	-9.9897
▁perda	-9.9897
▁activo	-9.99007
▁quimico	-9.99014
▁porta	-9.99098
▁black	-9.99123
▁versions	-9.99167
0.	-9.99332
▁militares	-9.99418
▁relixion	-9.99438
▁economico	-9.99451
▁tiveron	-9.99536
ll	-9.99539
▁football	-9.99688
▁ve	-9.9975
▁toma	-9.99781
▁semana	-9.99792
▁chamase	-9.99806
men	-9.99837
▁costas	-9.99864
▁comunmente	-9.99912
cas	-9.9998
▁gomez	-9.9999
▁eurovision	-9.99991
▁biblioteca	-10.0002
▁descrita	-10.0004
at	-10.001
▁insectos	-10.0012
▁agricultura	-10.0029
▁dobre	-10.0038
▁fundamental	-10.0039
▁chi	-10.0047
▁significado	-10.0047
▁exterior	-10.0054
▁certos	-10.0057
▁destaca	-10.0058
ula	-10.0065
ces	-10.0071
▁catala	-10.0071
▁indica	-10.0075
▁deixou	-10.0076
▁conservacion	-10.0091
"),	-10.011
▁continente	-10.011
▁locais	-10.0121
ando	-10.0121
▁noutras	-10.0127
▁vermella	-10.0129
▁idea	-10.0132
▁ku	-10.0139
▁nba	-10.0159
▁horas	-10.0171
▁corrente	-10.0178
▁utilizase	-10.018
▁barbanza	-10.0183
ber	-10.0188
▁ucraina	-10.0202
▁deportiva	-10.0206
▁filosofo	-10.0206
▁nenos	-10.0206
via	-10.0218
▁tecnoloxia	-10.0221
▁activista	-10.0222
▁institucion	-10.0226
▁politicas	-10.0226
▁conecemento	-10.0227
ii	-10.023
dores	-10.0243
▁formato	-10.0246
▁alfabeto	-10.0255
ster	-10.026
ul	-10.0285
▁noutros	-10.0291
▁comunista	-10.0292
▁bastante	-10.0292
▁airlines	-10.0307
▁certas	-10.0311
ris	-10.0312
▁adaptacion	-10.0317
▁tratamento	-10.0318
ty	-10.032
▁ala	-10.0321
▁bases	-10.0324
▁amor	-10.0324
je	-10.0325
▁tendo	-10.0331
▁organo	-10.0332
▁resposta	-10.0332
▁contenen	-10.0334
▁xvii	-10.0343
▁tui	-10.0345
▁listas	-10.0346
▁salnes	-10.0371
▁directamente	-10.0373
▁serbia	-10.0376
▁aparicion	-10.038
▁galeria	-10.0381
▁desenada	-10.0381
▁zelandia	-10.0386
▁latino	-10.0387
▁guitarra	-10.0397
▁centrocampista	-10.0401
val	-10.0405
▁limite	-10.0408
▁onda	-10.041
nova	-10.0415
mu	-10.0415
pro	-10.042
▁series	-10.0426
▁empresas	-10.0441
▁ju	-10.0443
▁considera	-10.0458
▁comeza	-10.0462
▁nela	-10.0462
▁tecido	-10.0462
▁consideran	-10.0473
▁washington	-10.0484
eta	-10.0488
▁volume	-10.0499
▁populares	-10.0504
▁respectivamente	-10.0513
▁falantes	-10.0515
dy	-10.0515
▁bioloxia	-10.0517
▁armas	-10.0519
▁terreo	-10.0529
▁0000-0000	-10.0535
▁internet	-10.0545
▁ambas	-10.055
ns	-10.0551
▁park	-10.057
▁fines	-10.0577
▁mono	-10.0581
▁caza	-10.0588
tradicionalmente	-10.0592
mon	-10.0593
▁frecuentemente	-10.0597
▁linas	-10.0598
▁delas	-10.0606
▁paulo	-10.0613
▁voltas	-10.0623
▁dolares	-10.0631
▁grao	-10.0638
sur	-10.064
▁busca	-10.0641
▁sala	-10.0641
nia	-10.0661
▁emprega	-10.0668
adas	-10.067
acion	-10.0681
し	-10.0685
▁relacionados	-10.0688
▁nacion	-10.0696
▁lles	-10.07
▁lucense	-10.0706
▁sarria	-10.0709
▁factor	-10.0719
▁analise	-10.0721
▁isabel	-10.0733
▁asemblea	-10.074
ren	-10.0744
illa	-10.0745
nado	-10.0751
antes	-10.0761
▁decadas	-10.0769
▁ir	-10.0771
▁pi	-10.0774
▁festa	-10.0775
▁software	-10.0787
▁montanas	-10.0789
▁turquia	-10.079
rum	-10.079
▁quedan	-10.0806
▁traducion	-10.0807
▁probablemente	-10.0807
▁honshu	-10.082
▁oriente	-10.0822
▁alimentos	-10.0824
▁surafrica	-10.0834
▁moedas	-10.0834
tis	-10.0837
▁lisboa	-10.0838
▁nu	-10.0843
▁rexime	-10.0854
▁arbores	-10.0869
ze	-10.0869
▁feminino	-10.0872
▁city	-10.0875
gan	-10.0881
▁antigas	-10.0904
▁love	-10.091
▁moderno	-10.0914
▁pertencentes	-10.0916
▁entrou	-10.092
▁interpretacion	-10.0922
▁fenomeno	-10.0922
▁catedral	-10.0922
▁desenado	-10.0923
▁oza	-10.0924
▁meridional	-10.0936
▁resistencia	-10.0936
▁discos	-10.0937
▁desenvolveu	-10.0952
▁poesia	-10.0953
▁musculo	-10.0964
▁diaz	-10.0966
▁proteccion	-10.097
▁xeneral	-10.0973
▁liberdade	-10.0974
tina	-10.0979
▁municipios	-10.0985
▁vivo	-10.099
▁il	-10.1006
▁israel	-10.1007
bra	-10.101
▁manter	-10.1019
▁moscova	-10.102
▁pokemon	-10.102
▁sanchez	-10.1037
▁ge	-10.104
▁deu	-10.1042
▁poboacions	-10.1048
▁persoal	-10.1055
▁derradeiro	-10.1057
▁silleda	-10.1058
▁habita	-10.106
▁presentan	-10.1066
▁palacio	-10.1074
▁pu	-10.1077
▁noite	-10.1081
cor	-10.1084
▁jesus	-10.1087
▁coche	-10.1089
▁micro	-10.1092
▁ocorre	-10.11
▁american	-10.11
▁coalicion	-10.1104
▁bronce	-10.1105
▁vella	-10.1106
▁amplo	-10.1109
▁music	-10.1114
▁breton	-10.1116
▁oleiros	-10.1127
▁eventos	-10.1129
▁grand	-10.1129
ea	-10.1134
▁voos	-10.1137
▁xente	-10.1138
▁solar	-10.1138
▁villa	-10.1141
▁instalacions	-10.1142
▁mon	-10.1143
▁sao	-10.1144
▁fu	-10.1149
▁disputa	-10.1155
▁diocese	-10.1155
▁suborde	-10.1155
▁terrestre	-10.1161
▁aberto	-10.1171
▁continental	-10.1174
▁anualmente	-10.1176
zu	-10.1181
▁molecular	-10.1182
▁ru	-10.1184
▁tradicionais	-10.119
ven	-10.1195
▁guinea	-10.1211
▁aerea	-10.1212
▁conecese	-10.1215
▁comunidades	-10.1229
▁nacemento	-10.1235
▁ja	-10.1236
ler	-10.124
▁antiguidade	-10.1241
▁joseph	-10.1242
▁pertencen	-10.1245
tan	-10.1246
ger	-10.1253
▁familias	-10.1272
▁sexto	-10.1276
▁detras	-10.1276
▁urbano	-10.1283
▁torres	-10.1285
mil	-10.1291
▁fama	-10.1295
▁turismo	-10.1297
▁conseguir	-10.1306
▁pezas	-10.1308
▁inaugurado	-10.131
▁afonso	-10.1311
▁estreada	-10.132
▁pesca	-10.1321
▁xornal	-10.1322
▁completo	-10.1336
▁recursos	-10.134
▁cinematografica	-10.1361
▁rosa	-10.1365
▁ep	-10.1371
▁sil	-10.1374
▁you	-10.1377
▁rolda	-10.1377
▁mantemento	-10.1379
▁directo	-10.1379
▁mostra	-10.1379
▁artistico	-10.1393
▁corea	-10.1393
▁tempadas	-10.1399
▁video	-10.1403
▁nacionalista	-10.1418
▁tecidos	-10.142
▁leis	-10.1425
▁%	-10.1427
▁muros	-10.1439
▁gravado	-10.1439
▁hi	-10.1449
▁editada	-10.1459
▁encontrase	-10.1462
▁escoces	-10.1473
▁pineiro	-10.1476
▁falta	-10.1477
▁culturais	-10.1478
▁episodios	-10.1497
▁inicio	-10.15
icas	-10.1508
▁infantil	-10.1519
▁sinxelos	-10.1523
▁definicion	-10.1529
▁relativamente	-10.1538
▁edificios	-10.154
▁mark	-10.1547
▁conflito	-10.1547
▁catolico	-10.155
▁billboard	-10.1554
▁quedou	-10.1572
▁competicions	-10.1576
▁xii	-10.1593
▁recentemente	-10.1593
san	-10.1595
▁textos	-10.1596
▁habitualmente	-10.1596
▁literario	-10.1601
▁pavillon	-10.1608
▁himno	-10.162
▁saga	-10.1628
▁ke	-10.1638
▁allariz	-10.1643
▁trono	-10.1652
provincia	-10.1661
au	-10.1666
▁incluido	-10.1677
▁lanzou	-10.1679
inos	-10.168
▁interna	-10.1686
▁{	-10.1695
mina	-10.1697
▁substancias	-10.1697
▁abadin	-10.1698
▁pista	-10.1702
istas	-10.1705
▁demais	-10.1713
▁obstante	-10.1751
▁arco	-10.1752
▁enxeneiro	-10.1764
▁aspecto	-10.1766
▁profesora	-10.1768
▁irmans	-10.1768
▁pol	-10.1779
▁manga	-10.1781
▁estendese	-10.1783
▁converteu	-10.1784
▁neerlandes	-10.1795
▁proximo	-10.1802
gui	-10.1803
▁atopar	-10.181
▁factores	-10.1812
ide	-10.1816
▁categorias	-10.1818
▁plano	-10.1822
em	-10.1824
▁(0000-0000).	-10.1829
▁chegada	-10.1834
▁altas	-10.1838
▁substituido	-10.184
sas	-10.1849
▁posteriores	-10.185
▁menores	-10.1857
▁chicago	-10.186
▁scott	-10.1864
▁utilizada	-10.1865
▁constituen	-10.1866
ts	-10.1867
mas	-10.187
./	-10.1883
?	-10.1884
ic	-10.1888
▁unesco	-10.1895
▁puido	-10.1898
▁remata	-10.1907
▁williams	-10.1911
▁00°0′00′′	-10.1915
▁papeis	-10.1915
▁alen	-10.192
▁bal	-10.1923
▁similares	-10.1923
▁cuba	-10.1929
▁reconecida	-10.1931
▁houbo	-10.1934
gar	-10.1938
▁-0.000	-10.1944
lan	-10.1949
▁consecuencia	-10.195
▁banco	-10.1952
▁razon	-10.1952
ny	-10.196
▁institucions	-10.1961
▁fose	-10.1963
▁fo	-10.197
▁semi	-10.1986
ras	-10.2006
▁instrumento	-10.2007
hi	-10.2009
▁depende	-10.2023
▁star	-10.2029
▁convertendose	-10.2029
▁folk	-10.2034
▁reserva	-10.2038
tal	-10.204
▁habitual	-10.204
▁cerca	-10.2043
yo	-10.2049
▁debut	-10.2049
▁programas	-10.2051
▁senor	-10.2058
▁capa	-10.2073
fu	-10.2074
▁ur	-10.2081
▁simon	-10.2097
▁curta	-10.2098
▁jazz	-10.2101
▁organizada	-10.2103
ng	-10.2106
▁programacion	-10.2106
▁florida	-10.2111
▁pintura	-10.2119
▁rexional	-10.2122
▁barco	-10.213
▁dixital	-10.2133
▁posuen	-10.2142
▁ci	-10.215
▁anual	-10.2152
▁domingo	-10.2157
▁colaboracion	-10.2157
▁tinan	-10.2167
▁za	-10.2168
▁clima	-10.2181
▁aspectos	-10.2181
▁sam	-10.2184
▁cesar	-10.2189
▁substancia	-10.2195
▁autoridade	-10.2197
▁che	-10.2211
▁expansion	-10.2213
▁cordoba	-10.2216
▁realizou	-10.2224
▁global	-10.2227
\	-10.2236
▁volveu	-10.2241
▁guitiriz	-10.2251
▁fi	-10.2251
unha	-10.2258
▁agas	-10.2266
▁top	-10.227
▁belga	-10.2278
▁completa	-10.2281
lles	-10.2286
▁ancares	-10.229
▁eduardo	-10.2294
ut	-10.2295
▁ber	-10.2298
и	-10.23
▁propios	-10.2301
▁boca	-10.2301
▁aplicacion	-10.2311
gu	-10.2311
▁contacto	-10.2313
▁cre	-10.2326
▁anel	-10.233
▁nuclear	-10.2333
▁peza	-10.2337
am	-10.234
▁voces	-10.2347
▁medallas	-10.2347
nda	-10.2355
▁levar	-10.2358
▁viviu	-10.237
tia	-10.2373
▁cientificos	-10.238
▁carne	-10.2382
▁ortegal	-10.2387
▁multiples	-10.2388
▁poboada	-10.2392
▁simple	-10.2392
can	-10.2393
▁tra	-10.2397
▁videoxogos	-10.2401
ac	-10.2406
▁australiano	-10.2406
▁coches	-10.2407
▁corpos	-10.2408
▁motivos	-10.2409
▁clasico	-10.2411
▁granada	-10.2416
cesuras	-10.2424
▁completamente	-10.2428
▁xv	-10.2432
▁corresponde	-10.2439
▁anton	-10.2458
▁vivos	-10.2461
▁jackson	-10.2463
▁empeza	-10.247
▁alonso	-10.2482
▁curtis	-10.2482
su	-10.2494
▁producen	-10.2496
▁bio	-10.2501
▁feitos	-10.2505
▁comedia	-10.2507
▁mel	-10.2509
▁tribo	-10.2513
▁usada	-10.2516
lina	-10.2516
▁peru	-10.2517
▁inicial	-10.252
tur	-10.252
▁nordes	-10.2521
▁electrica	-10.2523
▁single	-10.2527
▁mide	-10.254
▁calor	-10.2545
▁pasar	-10.2551
lar	-10.2551
gue	-10.2551
▁politicos	-10.256
▁construida	-10.2565
▁caldelas	-10.258
▁figuras	-10.258
▁minutos	-10.2583
ther	-10.2595
▁santos	-10.2597
▁semanario	-10.26
▁pico	-10.2602
▁feminina	-10.2605
lia	-10.2606
▁liquido	-10.2609
▁\	-10.261
▁encimas	-10.2612
▁javier	-10.2619
era	-10.2623
▁azucre	-10.2627
ticos	-10.2636
▁consumo	-10.2639
▁principado	-10.264
▁vilagarcia	-10.2642
mia	-10.2646
▁monumento	-10.2648
zi	-10.2648
▁sueca	-10.266
▁famosa	-10.2665
▁cruces	-10.2666
▁plan	-10.2678
▁sera	-10.2681
▁franquia	-10.2685
▁normal	-10.2693
▁louis	-10.2698
▁niveis	-10.2698
▁atencion	-10.2698
▁operacions	-10.27
▁polaco	-10.2701
▁chama	-10.2707
▁pasando	-10.2712
mp	-10.2712
▁esposa	-10.2719
▁noruega	-10.2721
▁matematicas	-10.2725
▁all	-10.2732
▁it	-10.2732
▁chegando	-10.2733
▁patins	-10.2734
ye	-10.2734
▁her	-10.2737
sta	-10.2737
ux	-10.2768
▁destacan	-10.2769
▁deben	-10.2775
ser	-10.2775
▁romanos	-10.2779
▁duracion	-10.2779
▁sp	-10.2782
▁motores	-10.2794
▁cortes	-10.2798
▁zaragoza	-10.2801
▁hungria	-10.2804
▁leite	-10.2806
▁riba	-10.2811
▁valores	-10.2811
bre	-10.2812
▁bosques	-10.2815
▁xesus	-10.2818
▁hidroxeno	-10.282
▁dinamarca	-10.282
▁alberto	-10.2827
▁matematico	-10.2827
▁apelido	-10.2827
mes	-10.2828
▁saida	-10.284
▁contrario	-10.2854
ak	-10.2854
▁rexistro	-10.2855
▁colonia	-10.2857
▁relacionado	-10.286
han	-10.286
▁acidos	-10.2868
▁freguesia	-10.2868
▁doenza	-10.2874
ex	-10.288
▁proxima	-10.2881
ham	-10.2884
▁literaria	-10.2888
ers	-10.2892
▁algun	-10.2895
▁ap	-10.2899
ix	-10.2904
gas	-10.2907
▁activa	-10.2914
▁automobilismo	-10.292
▁metodos	-10.292
▁alba	-10.292
▁empregase	-10.2929
▁va	-10.2931
pre	-10.2931
▁particularmente	-10.2949
▁sovietico	-10.2952
ard	-10.2958
▁0°0′00′′	-10.296
▁henrique	-10.2961
▁dado	-10.2972
▁pon	-10.2973
▁delta	-10.2974
▁finalizar	-10.2975
▁critico	-10.2976
ius	-10.2983
pu	-10.2988
▁exemplos	-10.2992
▁resultados	-10.2997
▁novelas	-10.2998
ff	-10.2999
▁tom	-10.2999
▁indonesia	-10.3002
osa	-10.3008
▁democratica	-10.3008
tre	-10.3016
▁0°00′0′′	-10.3021
▁diante	-10.3027
▁murcia	-10.3028
▁organos	-10.303
▁particulas	-10.3031
▁historicamente	-10.3032
▁identidade	-10.3033
▁incluida	-10.3036
rin	-10.3037
▁xupiter	-10.3043
▁modelos	-10.3046
▁independentes	-10.3048
▁tor	-10.3051
▁dragon	-10.3059
▁evento	-10.3061
▁responsable	-10.3075
para	-10.3077
▁ecuador	-10.3083
▁ministerio	-10.3083
ville	-10.3083
▁instrumentos	-10.3085
ito	-10.3086
▁capitan	-10.3088
").	-10.3092
▁milan	-10.3103
▁clases	-10.3106
we	-10.3106
▁caribe	-10.3125
▁monforte	-10.3126
rico	-10.3129
▁atenas	-10.3131
▁west	-10.3135
▁galegas	-10.3144
▁sir	-10.3146
▁gu	-10.315
▁viveiro	-10.3151
▁manten	-10.3151
▁lee	-10.3162
▁presentou	-10.3163
▁corazon	-10.3166
▁realizada	-10.3166
▁diego	-10.3168
▁evitar	-10.3192
▁clara	-10.3194
▁comportamento	-10.3202
▁estatal	-10.321
▁irlandesa	-10.3213
▁impacto	-10.3213
▁pasado	-10.3221
▁conquista	-10.3223
▁parece	-10.3225
▁vii	-10.323
▁dependendo	-10.3235
▁taboa	-10.3237
▁electronica	-10.3237
lon	-10.3237
▁q	-10.3271
nu	-10.3275
▁xestion	-10.3285
▁marinos	-10.3289
▁raiz	-10.3296
▁hebreo	-10.3299
▁futuro	-10.3309
▁comerciais	-10.3312
▁tropas	-10.3319
▁comezaron	-10.3323
▁palma	-10.3327
nio	-10.3332
▁armada	-10.3334
▁certa	-10.3339
▁motivo	-10.334
▁usando	-10.3342
▁venda	-10.3348
▁contexto	-10.3353
▁exposicion	-10.3353
▁accions	-10.3365
▁representar	-10.3367
pan	-10.337
gon	-10.3373
▁xogar	-10.3377
nba	-10.3379
с	-10.338
▁alfa	-10.3394
▁homonimo	-10.3415
▁confundir	-10.3416
▁celebrou	-10.3416
by	-10.3417
▁hora	-10.3427
▁cen	-10.3428
dan	-10.343
▁misions	-10.3432
▁constante	-10.3438
▁universo	-10.344
▁artigos	-10.3443
ite	-10.3455
▁estandar	-10.3461
▁baixista	-10.3465
▁caida	-10.3478
▁individuo	-10.3479
▁legal	-10.3481
+	-10.3481
▁centros	-10.3482
▁sonora	-10.3488
▁°	-10.3489
▁marcha	-10.349
▁popularmente	-10.349
▁monfero	-10.3504
▁funcionamento	-10.3506
▁cho	-10.3515
▁fabrica	-10.3521
▁daquela	-10.3522
▁metro	-10.3528
▁checa	-10.3529
▁carl	-10.3535
▁viaxe	-10.3535
▁tour	-10.3538
▁receptor	-10.354
▁ki	-10.3545
▁amais	-10.3547
rre	-10.3547
▁aminoacidos	-10.3548
▁participar	-10.355
▁cola	-10.355
')	-10.3557
▁galo	-10.3559
▁protagonista	-10.3568
iformes	-10.3568
▁rural	-10.3569
▁territorial	-10.357
▁une	-10.3574
▁har	-10.3578
▁fixose	-10.3583
tri	-10.3585
▁alianza	-10.3591
▁laracha	-10.3591
▁uefa	-10.3591
▁α	-10.3592
▁blanco	-10.3595
▁realiza	-10.3595
▁totalmente	-10.3599
▁abegondo	-10.3612
▁smith	-10.3623
▁aplicacions	-10.3632
▁trafico	-10.3634
▁ucraino	-10.3636
▁culto	-10.3645
▁propias	-10.3651
▁operacion	-10.3653
▁orquestra	-10.3666
▁jr	-10.3668
ero	-10.3675
tiva	-10.3678
▁incluso	-10.3678
▁localizacion	-10.3688
▁vision	-10.3688
▁0000);	-10.3697
▁solitario	-10.37
▁disney	-10.37
▁cancro	-10.37
▁directora	-10.3701
ps	-10.3704
▁rico	-10.3704
▁sexta	-10.3706
tt	-10.3711
▁ix	-10.3712
rra	-10.3721
▁vino	-10.3723
ling	-10.3727
▁relacionadas	-10.3738
▁memoria	-10.3742
▁oposicion	-10.3748
▁pictures	-10.3754
▁poboado	-10.3759
▁usase	-10.376
▁naron	-10.3762
▁terminou	-10.3766
▁xustiza	-10.3769
▁presentes	-10.377
▁mont	-10.3774
dis	-10.3776
kin	-10.378
▁shi	-10.3781
ion	-10.3784
par	-10.3788
▁pen	-10.3789
▁plataforma	-10.3789
▁dividida	-10.3789
▁quiroga	-10.379
▁andre	-10.379
▁venezuela	-10.379
▁enlace	-10.3791
▁automobiles	-10.3792
▁todala	-10.3796
▁practicamente	-10.3799
▁record	-10.3801
▁pes	-10.3803
kh	-10.3804
tura	-10.381
▁gregoriano	-10.3811
▁mm	-10.3827
▁americana	-10.3836
ud	-10.3838
▁fins	-10.3839
▁mancha	-10.3847
▁international	-10.385
▁universitario	-10.3857
im	-10.3868
▁antigamente	-10.3868
▁atopan	-10.3879
▁concentracion	-10.388
iana	-10.3889
▁fabricacion	-10.3901
▁chega	-10.3907
▁hill	-10.3909
aceae	-10.391
▁ce	-10.3913
min	-10.392
▁habia	-10.392
▁hemisferio	-10.3922
▁aprobacion	-10.3922
▁exemplares	-10.3923
▁irma	-10.3928
dal	-10.3929
ker	-10.393
▁stone	-10.3933
▁nobre	-10.3934
▁hu	-10.3935
▁vento	-10.3936
▁neves	-10.3937
▁xiv	-10.3938
▁xurxo	-10.3944
▁policia	-10.3945
▁confederacion	-10.395
xia	-10.3957
▁punta	-10.3963
▁autonomia	-10.3968
ah	-10.397
▁colombiano	-10.3972
▁ya	-10.3976
▁game	-10.3981
▁transicion	-10.3989
▁xusto	-10.399
▁deusa	-10.3998
▁organizado	-10.4002
▁aqui	-10.4004
▁sintese	-10.4015
▁acadar	-10.4016
▁enfermidades	-10.4016
▁trofeo	-10.4016
▁asociado	-10.4018
▁encontros	-10.4022
▁rochas	-10.4022
▁promocion	-10.4033
▁rica	-10.4035
▁carballedo	-10.4036
▁descubrimento	-10.4041
▁pra	-10.4046
▁euscaro	-10.4057
▁poucas	-10.4058
▁gi	-10.4061
▁certo	-10.4064
ios	-10.4067
▁men	-10.4071
α	-10.4071
ante	-10.4072
▁galegos	-10.4074
▁renacemento	-10.408
▁entrega	-10.4087
▁ancho	-10.4087
▁king	-10.409
▁risco	-10.4092
▁brasileira	-10.4108
ez	-10.4108
▁masculino	-10.4108
▁ideas	-10.4117
uri	-10.4118
▁axente	-10.4122
gen	-10.4125
ι	-10.4126
▁concertos	-10.4127
▁conecer	-10.4131
▁relixiosa	-10.4133
▁organizacions	-10.4134
▁sinal	-10.4135
ias	-10.4138
▁converte	-10.414
▁ia	-10.4145
▁recinto	-10.4149
▁(0.000	-10.4149
▁describir	-10.4153
▁pensamento	-10.4157
▁limites	-10.4157
▁determinado	-10.4158
▁turco	-10.4161
▁persa	-10.4168
▁anunciou	-10.417
▁maceda	-10.4172
▁cup	-10.4179
▁documental	-10.4181
▁white	-10.4183
▁wa	-10.419
▁especifica	-10.419
▁espanois	-10.4195
▁inc	-10.4198
rian	-10.4202
▁campana	-10.4204
▁sinais	-10.4208
▁nesa	-10.4208
▁aventuras	-10.4222
iano	-10.4223
▁reais	-10.4223
▁criticas	-10.4224
▁froito	-10.4225
▁mecanica	-10.4225
▁fotografia	-10.4231
▁variante	-10.4231
▁iglesias	-10.4239
▁nintendo	-10.4241
▁tolkien	-10.4241
▁valdeorras	-10.4241
▁varia	-10.4243
▁ball	-10.4247
▁participaron	-10.4247
▁jan	-10.4252
▁matrimonio	-10.4264
▁ideoloxia	-10.4264
▁aneis	-10.4265
▁describe	-10.427
▁bay	-10.4271
icos	-10.4273
▁cultivo	-10.4281
▁participa	-10.4282
▁deportes	-10.4282
▁crater	-10.4283
▁viii	-10.4286
▁ro	-10.429
rina	-10.4292
▁variedades	-10.4295
▁especializado	-10.4297
▁afluente	-10.4297
▁morto	-10.4298
▁procura	-10.43
▁derivado	-10.431
▁qui	-10.4315
▁podemos	-10.4316
▁setimo	-10.4318
▁cuberta	-10.4324
▁far	-10.4324
▁proxectos	-10.4331
▁potencia	-10.4333
▁demarcacion	-10.4334
▁utilizan	-10.4341
▁multi	-10.4343
▁fixeron	-10.4344
▁serbio	-10.4353
tum	-10.4357
▁secuencias	-10.4358
▁iran	-10.4359
▁votos	-10.436
▁hall	-10.4365
▁secuela	-10.4367
▁virxe	-10.4367
del	-10.437
din	-10.4373
▁cadeas	-10.4384
▁actores	-10.4387
lis	-10.4388
▁componente	-10.4394
▁mc	-10.4395
one	-10.4395
▁flor	-10.4408
▁descrito	-10.4416
▁reforma	-10.4418
ju	-10.4422
▁hospital	-10.4425
▁extra	-10.4428
▁arcebispo	-10.4428
▁continuou	-10.4433
▁investigacions	-10.4435
▁sexo	-10.4439
▁bacteria	-10.4446
▁conserva	-10.4448
mbo	-10.445
▁pablo	-10.4452
baixo	-10.4454
van	-10.4455
▁baixas	-10.4459
▁quere	-10.4462
▁conferencia	-10.4462
▁paxina	-10.4462
▁caracterizase	-10.4464
▁condicion	-10.4467
▁modernos	-10.4476
▁anime	-10.4476
▁victor	-10.448
▁combate	-10.4487
▁representante	-10.4493
0)	-10.4495
▁bilbao	-10.4501
▁nosa	-10.4502
▁escena	-10.451
▁liderado	-10.4514
▁historicos	-10.4516
▁interpretar	-10.4535
▁lagos	-10.4538
▁raza	-10.4538
base	-10.4544
▁0°00′	-10.4547
▁oaci	-10.4549
▁levan	-10.4553
ium	-10.4558
▁sido	-10.4564
▁kg	-10.4568
▁tim	-10.4572
▁ofrece	-10.4574
▁rey	-10.4578
▁reciben	-10.458
▁romania	-10.4584
▁sitios	-10.4584
▁alternativa	-10.459
cto	-10.4597
▁cantabria	-10.4601
▁once	-10.4606
ec	-10.4606
ouse	-10.4608
ik	-10.462
▁ribadeo	-10.4621
▁electrons	-10.4624
▁designacion	-10.4626
▁desenvolver	-10.463
▁expedicion	-10.4632
gra	-10.4638
ata	-10.464
▁radiacion	-10.4643
▁reproducion	-10.4644
▁crese	-10.4651
bri	-10.4652
▁chegaron	-10.4655
▁actos	-10.4655
▁declarado	-10.4656
▁parede	-10.4657
▁traducido	-10.4659
▁representan	-10.4661
▁bre	-10.4664
е	-10.4666
▁setentrional	-10.4667
▁transmision	-10.4667
▁racing	-10.4667
ensis	-10.4669
▁muras	-10.4669
ire	-10.4674
▁0%	-10.4676
▁indixenas	-10.4677
tz	-10.4681
dar	-10.4682
ao	-10.4683
▁neo	-10.4687
▁indio	-10.4689
▁feita	-10.4689
▁varela	-10.4692
▁fosiles	-10.4695
▁aqueles	-10.4696
▁popularidade	-10.4697
▁texas	-10.4703
▁debese	-10.4708
▁solo	-10.4708
▁arabes	-10.4715
▁rafael	-10.4716
▁profesionais	-10.4717
▁valdovino	-10.4717
▁alfonso	-10.4718
▁curto	-10.472
▁relacionada	-10.472
▁equivalente	-10.4733
▁traballa	-10.4739
▁implica	-10.4742
▁lagoa	-10.4742
▁rocha	-10.4754
▁usar	-10.4757
vis	-10.4775
▁island	-10.4776
▁unicamente	-10.4777
▁avions	-10.4779
▁determinada	-10.4782
ol	-10.4783
▁columbia	-10.4792
▁distribuido	-10.4797
▁intencion	-10.4799
▁indixena	-10.4804
▁ille	-10.4814
▁ataque	-10.4825
▁chinesa	-10.4829
cotobade	-10.4838
▁occidente	-10.4839
▁peliculas	-10.484
aba	-10.4847
▁ceo	-10.4847
▁xeografica	-10.4849
▁matematica	-10.4851
▁funciona	-10.4852
▁roman	-10.4859
▁tropicais	-10.4863
▁monaco	-10.4863
▁rango	-10.4865
▁valladolid	-10.4867
▁secretario	-10.4869
▁norteamerica	-10.4872
▁franceses	-10.4873
▁representantes	-10.4879
▁especiais	-10.4888
▁santander	-10.4888
▁culturas	-10.4889
ig	-10.4892
▁directa	-10.4901
ela	-10.4905
▁destino	-10.4912
▁empregada	-10.4914
▁exclusivamente	-10.4914
her	-10.4914
▁parada	-10.4916
▁realizado	-10.4916
▁beta	-10.4924
▁actua	-10.4927
▁tomou	-10.493
▁orixinaria	-10.493
nde	-10.4931
▁feminista	-10.4932
berg	-10.4933
▁atomos	-10.4938
▁designar	-10.4938
▁xeorxia	-10.4945
gal	-10.4954
▁disciplina	-10.4956
gua	-10.4958
▁galardoado	-10.4962
▁liberacion	-10.4964
▁cerdedo	-10.4966
▁provincial	-10.4967
rica	-10.4968
var	-10.4971
bar	-10.4973
▁literalmente	-10.4978
▁galardon	-10.4979
▁meira	-10.498
▁escritos	-10.4985
ue	-10.4989
▁diario	-10.4994
dro	-10.4995
▁fabricante	-10.5006
▁suma	-10.5008
▁company	-10.5012
▁lume	-10.5013
▁viena	-10.5014
▁diferenzas	-10.5019
▁denominanse	-10.5021
▁tren	-10.5028
▁dimensions	-10.5029
▁descuberto	-10.503
▁contou	-10.503
▁marin	-10.5033
▁aceite	-10.5033
▁xurdiu	-10.5037
▁ducado	-10.5037
▁semellantes	-10.5039
ente	-10.5051
▁enrique	-10.5052
mor	-10.5054
▁lenda	-10.5055
▁siglas	-10.5058
▁cospeito	-10.5063
mus	-10.5066
▁concepcion	-10.5069
▁nomeada	-10.507
nza	-10.5072
0-	-10.5073
ford	-10.5077
▁yu	-10.5079
▁acto	-10.5084
▁especifico	-10.5085
▁sexan	-10.5093
▁albert	-10.5105
▁victoria	-10.5109
▁indice	-10.5111
▁000°00′00′′	-10.5112
▁sadurnino	-10.5113
▁sebastian	-10.5118
▁cabalo	-10.5119
oso	-10.5129
▁secundaria	-10.5132
▁algunha	-10.5133
▁austriaco	-10.5138
▁gobernador	-10.5141
▁goles	-10.5143
▁favor	-10.515
▁separa	-10.5151
▁estevo	-10.5152
▁molusco	-10.5158
▁privada	-10.5158
▁ondas	-10.5159
▁urbana	-10.516
star	-10.5161
▁atmosfera	-10.5163
▁armenia	-10.5163
▁jersey	-10.5163
▁sindicalista	-10.5165
▁mondonedo	-10.5165
▁continuacion	-10.5166
▁ganando	-10.5168
▁deuses	-10.5172
inas	-10.5173
▁han	-10.5178
▁garda	-10.5179
▁suizo	-10.5184
▁competir	-10.5185
▁alimento	-10.5186
▁sin	-10.5187
▁kosmos	-10.5192
▁frank	-10.5196
stra	-10.5201
nd	-10.5204
▁economicas	-10.5205
▁chris	-10.5206
guitarra	-10.5211
▁asturiano	-10.5214
▁00°	-10.5216
▁cromosomas	-10.5217
ben	-10.5219
▁sicilia	-10.523
▁valenciana	-10.5231
▁profundidade	-10.5235
▁contemporanea	-10.5236
▁serviu	-10.524
▁gil	-10.524
▁traballar	-10.5242
▁xuvenil	-10.5243
▁protagonizada	-10.5243
▁chu	-10.5246
▁semanas	-10.5258
▁europeas	-10.5258
▁0.0	-10.5259
▁filo	-10.5266
▁doenzas	-10.528
▁utilizando	-10.5282
▁max	-10.5285
▁lateral	-10.5291
▁guerras	-10.5295
▁nace	-10.5296
▁roberto	-10.5299
а	-10.5308
▁invasion	-10.5314
com	-10.5314
▁descuberta	-10.5314
▁caron	-10.5317
▁correspondente	-10.5317
izar	-10.5317
▁separacion	-10.5319
▁escribir	-10.5319
▁studios	-10.5336
▁jack	-10.5337
▁comision	-10.5339
▁tomar	-10.5343
▁diversidade	-10.5344
▁jones	-10.5348
▁tele	-10.5351
▁usan	-10.536
▁bng	-10.5362
▁frecuente	-10.5364
▁ultimas	-10.5365
▁campions	-10.5368
eiros	-10.5368
▁souto	-10.5371
▁green	-10.5392
▁canarias	-10.5393
▁estudantes	-10.5411
▁escolas	-10.5411
▁fisterra	-10.542
▁bogota	-10.5421
▁fifa	-10.5422
▁moita	-10.5422
▁nativa	-10.5423
▁influencias	-10.5424
▁vivian	-10.543
▁vias	-10.544
ario	-10.5443
▁reaccions	-10.5444
▁construir	-10.5446
▁dialecto	-10.5446
▁xenoma	-10.5446
▁sobrado	-10.5447
▁monarquia	-10.5447
▁ocupou	-10.5447
▁acronimo	-10.5449
▁long	-10.545
▁produciu	-10.5452
▁meta	-10.5458
▁exitos	-10.5463
▁tar	-10.5463
▁tome	-10.5468
▁dura	-10.5471
▁turistico	-10.5472
▁mexicano	-10.5473
▁toquio	-10.5473
ola	-10.5473
sion	-10.5475
▁malaga	-10.5481
▁soamente	-10.5483
nus	-10.5483
uro	-10.5484
▁desa	-10.5489
▁valenciano	-10.5492
▁condados	-10.5499
ato	-10.5502
▁candidatos	-10.5505
▁problema	-10.551
▁crise	-10.5511
▁cristia	-10.5522
▁orixina	-10.5523
▁entertainment	-10.5525
▁atol	-10.5527
▁redondela	-10.5529
▁escultor	-10.5531
est	-10.5532
ment	-10.5536
▁bana	-10.5537
ski	-10.5546
▁editor	-10.5547
ey	-10.5551
▁patrocinio	-10.5552
▁xermade	-10.5554
▁dependente	-10.5554
punk	-10.5555
▁fluxo	-10.5555
▁bisestos	-10.5557
terra	-10.5558
▁crecente	-10.5558
ara	-10.5561
▁cristo	-10.5561
▁ovos	-10.5561
mba	-10.5566
▁andres	-10.5568
cus	-10.5574
▁poema	-10.5577
field	-10.5578
▁netflix	-10.5578
▁constelacion	-10.5578
▁idioma	-10.5578
▁alcume	-10.5579
▁traballadores	-10.558
▁gaelico	-10.5583
nis	-10.5585
▁sucesor	-10.5595
▁variantes	-10.5598
▁dificil	-10.5599
▁individual	-10.56
▁ollos	-10.5604
▁ausencia	-10.5605
▁cedeira	-10.5605
▁henry	-10.5605
▁astronauta	-10.5607
▁orixinais	-10.5608
▁windows	-10.561
▁dirixiu	-10.561
▁mantivo	-10.561
▁unida	-10.562
▁eclesiastico	-10.5631
tio	-10.5638
▁historias	-10.5642
▁herba	-10.5642
▁entrar	-10.5648
▁film	-10.5648
▁miles	-10.5652
▁petroleo	-10.5658
▁vilanova	-10.5663
▁especificamente	-10.5663
▁joan	-10.5665
▁distritos	-10.5667
▁ascenso	-10.5668
▁posicions	-10.5669
▁pasaron	-10.5669
tou	-10.567
▁edward	-10.567
▁paredes	-10.5671
▁die	-10.5674
▁estuda	-10.5678
▁recente	-10.5682
▁extincion	-10.5685
▁harry	-10.5686
izada	-10.5686
▁asasinato	-10.5687
▁melide	-10.5689
▁norteamericano	-10.5693
▁basease	-10.5694
▁complexos	-10.5695
ini	-10.5701
gos	-10.571
▁ensino	-10.571
▁estimada	-10.5715
▁habitat	-10.5715
▁ri	-10.5717
▁fungos	-10.5719
▁estilos	-10.5726
▁ras	-10.5727
▁royal	-10.5732
▁ph	-10.5733
▁custo	-10.574
riz	-10.5741
estados	-10.5741
▁cabana	-10.5741
▁tarragona	-10.5742
▁filipe	-10.5743
▁rapido	-10.5744
▁bra	-10.5749
▁sonda	-10.575
▁status	-10.575
ase	-10.5751
cin	-10.5752
▁bell	-10.5764
▁ferrocarril	-10.5765
▁xentilicio	-10.5765
▁pastoriza	-10.5766
▁zamora	-10.577
▁dando	-10.5771
ima	-10.5775
▁arcos	-10.5777
▁mary	-10.578
yu	-10.5785
▁placa	-10.5786
▁marxe	-10.5787
ella	-10.5788
▁enlaces	-10.5792
▁breve	-10.5792
-00,	-10.5797
uk	-10.5799
bia	-10.5799
р	-10.5808
rei	-10.5809
▁liberal	-10.5817
▁cantidades	-10.5818
cen	-10.5819
▁cabanas	-10.5819
▁croacia	-10.5822
▁boveda	-10.5822
▁0.000.000	-10.5822
▁orixinario	-10.5824
▁ricardo	-10.5826
iz	-10.5833
▁ban	-10.5838
▁espazos	-10.5838
▁dise	-10.5841
▁lema	-10.5841
▁millon	-10.5843
▁honor	-10.5844
▁sufriu	-10.5847
▁cristovo	-10.5847
▁jorge	-10.5847
▁arteixo	-10.5849
▁perigo	-10.585
▁actuacion	-10.5852
▁pla	-10.5857
▁taboada	-10.5857
▁colonias	-10.5862
▁igrexas	-10.5867
▁destacado	-10.5867
net	-10.5872
rie	-10.5876
tta	-10.5878
▁temporada	-10.588
bal	-10.5884
▁silva	-10.5889
▁land	-10.5891
▁cidadans	-10.5896
▁volcan	-10.5898
▁publicacions	-10.5903
▁bosque	-10.5907
vin	-10.5912
▁vendeu	-10.5914
fundamentalmente	-10.5918
▁presidencia	-10.592
▁yo	-10.5921
▁labor	-10.5921
xu	-10.5927
▁raices	-10.5929
▁ribeiro	-10.593
▁violencia	-10.5931
▁rapidamente	-10.5932
▁karl	-10.5933
▁praga	-10.5938
▁ulla	-10.5942
▁periodos	-10.5942
▁fortes	-10.5946
▁portas	-10.5948
▁escritores	-10.5948
▁fundadores	-10.5951
▁congo	-10.5955
▁comba	-10.5959
▁estreitamente	-10.596
▁galaxia	-10.5962
▁asuntos	-10.5962
▁celebra	-10.5963
▁caixa	-10.5971
▁var	-10.5976
▁etapas	-10.5977
▁euro	-10.5978
▁fame	-10.5979
▁ocupacion	-10.5981
▁declaracion	-10.5984
▁democracia	-10.5987
ph	-10.6003
▁oitavo	-10.6011
▁cristina	-10.6011
▁difusion	-10.6011
▁seguindo	-10.6012
▁habitan	-10.6012
▁golpe	-10.6016
▁vilaine	-10.6016
▁cria	-10.6026
▁australiana	-10.6031
▁musicos	-10.6032
▁existentes	-10.6033
sia	-10.6035
▁gregos	-10.6036
rt	-10.6039
psdeg	-10.6041
▁decidiu	-10.6043
▁designa	-10.6045
▁cordilleira	-10.6046
▁executivo	-10.6046
▁cadiz	-10.6048
ov	-10.6049
▁lama	-10.6052
▁vietnam	-10.6064
▁vilas	-10.6064
▁filipinas	-10.6065
▁emilio	-10.6067
▁civis	-10.6067
▁vasca	-10.6069
▁cocina	-10.6069
▁otero	-10.6072
▁pares	-10.6086
▁debaixo	-10.6094
▁hollywood	-10.6096
▁catalunya	-10.6096
ier	-10.6096
▁vivir	-10.6098
▁episodio	-10.6102
▁ciclista	-10.6105
▁vendas	-10.6108
▁incluir	-10.6117
▁celulares	-10.6117
▁trinta	-10.6123
▁vo	-10.6124
▁fortaleza	-10.6126
iza	-10.6129
▁companeiro	-10.613
▁dispon	-10.6135
up	-10.6139
▁permiten	-10.6143
▁homenaxe	-10.6151
▁lorenzo	-10.6154
▁carmen	-10.6156
▁finalizou	-10.6157
ap	-10.6158
▁utilizar	-10.6159
▁combinacion	-10.6161
ure	-10.6161
▁considerados	-10.6163
▁tre	-10.6165
▁camp	-10.6168
▁β	-10.617
▁canal	-10.6172
ticas	-10.6175
▁celebrase	-10.6176
▁tratar	-10.6179
▁cristianismo	-10.618
let	-10.6184
▁simbolos	-10.6186
pen	-10.6187
izado	-10.6193
▁mando	-10.6196
▁gor	-10.6198
▁podense	-10.6201
nica	-10.6202
▁terror	-10.6204
ral	-10.6205
▁viana	-10.6207
▁descubriu	-10.6207
▁united	-10.6207
▁ponteareas	-10.621
▁permanente	-10.6211
ek	-10.6214
▁peri	-10.6218
▁deputados	-10.622
▁converterse	-10.6221
ila	-10.6228
▁aparecer	-10.6234
▁retirada	-10.6238
▁amarelo	-10.6239
eu	-10.6242
▁tro	-10.6245
▁olimpica	-10.6246
▁falan	-10.6246
▁homo	-10.6246
▁patron	-10.6247
▁podia	-10.6256
▁prensa	-10.6263
▁toledo	-10.6267
▁suarez	-10.6268
▁nacionalismo	-10.627
▁gravacion	-10.6274
▁sacerdote	-10.6274
▁with	-10.6274
nico	-10.6275
tha	-10.6276
▁conca	-10.6276
una	-10.628
▁municipais	-10.6292
▁alcumado	-10.6295
▁us	-10.6301
▁seguir	-10.6315
▁foto	-10.6318
▁aquela	-10.632
▁imperial	-10.6321
▁altos	-10.6328
▁consistente	-10.6334
▁we	-10.6339
▁big	-10.6341
▁escultura	-10.6345
ena	-10.6346
ー	-10.6349
æ	-10.6352
▁alexandre	-10.6353
▁kata	-10.6355
cy	-10.6356
▁ganaron	-10.6359
▁amigo	-10.6361
▁gar	-10.6361
▁escocesa	-10.6361
▁ron	-10.6361
▁cer	-10.6362
rias	-10.6372
▁recentes	-10.6376
▁poemas	-10.6377
▁cosmodromo	-10.6377
▁cf	-10.638
▁esqui	-10.6382
▁vehiculos	-10.6385
▁brian	-10.6393
▁campionatos	-10.6397
▁percorrido	-10.6406
▁ulloa	-10.6406
▁cerimonia	-10.6409
aria	-10.641
▁oso	-10.6412
▁marinas	-10.6413
▁pri	-10.6417
▁marie	-10.6419
▁coral	-10.6424
▁estudar	-10.6424
▁adultos	-10.6424
rock	-10.6428
▁nogueira	-10.6432
▁canton	-10.6439
▁boiro	-10.644
▁-000	-10.6443
my	-10.6445
▁cristians	-10.6448
▁participan	-10.645
ae	-10.6457
▁dominios	-10.6459
▁seren	-10.6464
▁nasa	-10.6464
▁0-0	-10.6465
▁cannes	-10.6466
oficialmente	-10.6468
▁carolina	-10.6472
dd	-10.6474
▁estatuto	-10.6479
▁conexions	-10.6483
▁enxenaria	-10.6493
▁superiores	-10.6494
▁duo	-10.6503
▁group	-10.6504
▁cronica	-10.6506
▁pereira	-10.6509
bles	-10.6511
beis	-10.6515
for	-10.6518
▁alcanzar	-10.6521
tti	-10.6521
▁encontran	-10.6522
▁princesa	-10.6523
▁novelista	-10.6523
▁localidades	-10.6523
▁receptores	-10.6529
▁valle	-10.6532
▁pole	-10.6533
▁incluidos	-10.6533
▁asociada	-10.6538
▁drama	-10.6542
▁am	-10.6543
▁britanicas	-10.6546
▁art	-10.6549
▁disolucion	-10.6552
▁deserto	-10.6553
mann	-10.6558
▁artistica	-10.6561
▁externa	-10.6565
▁nervioso	-10.6567
▁war	-10.6569
▁ocasion	-10.6571
▁reinos	-10.6575
if	-10.6581
▁perdeu	-10.659
▁mineral	-10.6597
▁alberga	-10.6598
espana	-10.6599
▁concurso	-10.66
ρ	-10.6605
▁deshabitado	-10.661
▁xerusalen	-10.661
▁ferreira	-10.661
▁bill	-10.6614
▁bizantino	-10.6625
▁axencia	-10.6625
▁venecia	-10.6625
▁dedicada	-10.6627
▁cadrados	-10.6629
▁participantes	-10.6633
▁presentar	-10.6635
▁mer	-10.6637
▁audiencia	-10.6639
υ	-10.664
ska	-10.664
▁cambre	-10.6644
▁numismatico	-10.6647
ides	-10.6648
▁nave	-10.665
▁hot	-10.6659
▁mesa	-10.6659
▁clave	-10.6663
▁mina	-10.6664
▁metabolismo	-10.6669
tino	-10.6674
▁retirado	-10.6674
bateria	-10.6675
▁globo	-10.6681
▁anna	-10.6681
▁recolle	-10.6684
▁necesidade	-10.6684
▁extremos	-10.6685
▁com	-10.6693
▁fogar	-10.6693
▁denomina	-10.6696
▁prado	-10.6698
▁barreiros	-10.6698
▁stephen	-10.6698
▁time	-10.67
▁corporacions	-10.6702
▁criticos	-10.6706
▁nucleos	-10.671
▁experimental	-10.6714
▁rol	-10.6716
▁teo	-10.6718
▁determinar	-10.6718
▁empregados	-10.6719
▁solido	-10.6721
▁falar	-10.6722
▁begonte	-10.6728
▁oxixeno	-10.6728
▁editou	-10.6729
▁interpreta	-10.6729
▁one	-10.6736
▁medica	-10.6755
▁recibir	-10.6755
▁oviedo	-10.6758
▁constituida	-10.676
▁parcialmente	-10.6761
▁(0000-0000);	-10.6762
▁vertebrados	-10.6767
▁sun	-10.6775
▁necesario	-10.6775
▁pino	-10.6775
▁patas	-10.6776
▁cousas	-10.6779
▁encontro	-10.678
▁torno	-10.678
▁quimicos	-10.6781
▁transcricion	-10.6782
▁autoridades	-10.6787
ː	-10.6787
▁igualdade	-10.6788
▁je	-10.6789
nta	-10.6789
▁orixes	-10.6791
▁rego	-10.6793
▁fene	-10.6803
▁mecanismo	-10.6805
▁dividido	-10.6805
▁vitorias	-10.6806
▁cristian	-10.6818
▁brown	-10.6818
▁poida	-10.6818
.[	-10.682
ang	-10.6824
▁lobo	-10.6825
▁creador	-10.6832
▁variable	-10.6836
▁absoluta	-10.6847
▁riqueza	-10.6847
▁empezou	-10.6847
▁elixida	-10.6847
▁rodeiro	-10.6848
▁neno	-10.6849
om	-10.685
▁finalidade	-10.6855
▁angeles	-10.6859
▁mala	-10.6862
▁biscaia	-10.6864
▁residencia	-10.6866
▁salto	-10.6868
ney	-10.6869
amento	-10.6869
▁gra	-10.687
▁cas	-10.687
▁donostia	-10.6878
▁dublin	-10.6878
▁iugoslavia	-10.6881
▁corre	-10.6889
▁pazos	-10.6895
▁iniciativa	-10.6898
▁arciprestado	-10.6908
▁oitava	-10.6908
▁verin	-10.691
▁boy	-10.6914
▁foguetes	-10.6915
▁resulta	-10.6917
▁checo	-10.6921
lli	-10.6928
▁normas	-10.6929
▁humanas	-10.6936
cher	-10.6936
▁guerrilleiro	-10.6938
▁alimentacion	-10.6939
▁depresion	-10.694
▁boston	-10.694
▁canon	-10.695
▁aberta	-10.6955
▁pardo	-10.6955
▁zi	-10.6958
gg	-10.6958
▁cumio	-10.6958
▁celebracion	-10.696
▁desenvolvida	-10.696
tin	-10.6965
rios	-10.6967
▁habana	-10.6971
▁taxa	-10.6972
cina	-10.6972
▁radical	-10.6977
▁argumento	-10.6979
▁aparencia	-10.6999
▁minerais	-10.6999
▁boeing	-10.6999
▁circulacion	-10.6999
▁tv	-10.7
▁africano	-10.7019
▁sabor	-10.7025
▁mega	-10.7027
rus	-10.7029
▁canaveral	-10.703
▁economista	-10.703
ա	-10.7036
▁divide	-10.7039
▁bur	-10.7039
▁0000/00	-10.7042
▁tur	-10.7044
▁experiencia	-10.7052
dio	-10.7053
▁deportivos	-10.7054
▁hungaro	-10.7057
▁destacou	-10.706
▁algas	-10.7068
▁neda	-10.7082
▁supuxo	-10.7091
▁alexander	-10.7091
▁moeche	-10.7091
▁julio	-10.7091
=	-10.7094
▁dalguns	-10.7104
▁arma	-10.7104
dora	-10.7105
ε	-10.7106
▁tralo	-10.7106
▁seguido	-10.7106
▁canda	-10.7107
▁suficiente	-10.7113
▁laboratorio	-10.7113
▁cruceiro	-10.7113
▁administrativo	-10.7117
▁grave	-10.7117
▁teatral	-10.7122
▁occidentais	-10.7124
▁nitroxeno	-10.7124
cions	-10.7124
ua	-10.7126
▁razons	-10.7127
▁ze	-10.7133
▁mario	-10.7134
▁democraticas	-10.7136
▁aparello	-10.7145
▁mamifero	-10.7145
▁alan	-10.7146
▁atras	-10.7148
▁potencial	-10.7152
estadounidense	-10.7161
▁mira	-10.7163
vexase	-10.7166
▁posiblemente	-10.7167
▁agricola	-10.7176
▁terrestres	-10.7176
▁disponible	-10.7176
▁dividese	-10.7177
▁magnitude	-10.7178
▁medidas	-10.7181
▁fra	-10.7182
ン	-10.7184
▁gabriel	-10.7184
met	-10.7185
▁estea	-10.7186
▁conceptos	-10.7186
▁palencia	-10.7188
▁acerbaixan	-10.7188
sch	-10.7192
dina	-10.7197
▁colon	-10.72
▁formouse	-10.7201
▁masculina	-10.7208
▁organica	-10.7208
▁apos	-10.7208
▁bob	-10.7217
▁capaz	-10.722
grego	-10.7221
▁saiu	-10.7227
▁pin	-10.7231
wi	-10.7232
▁excepcion	-10.7236
▁blues	-10.7237
eo	-10.7237
▁separada	-10.7242
▁escura	-10.7245
▁heavy	-10.7246
▁superfamilia	-10.7247
▁prix	-10.7252
▁hal	-10.7254
▁totalidade	-10.7254
▁adaptado	-10.7254
▁kar	-10.7256
ish	-10.7262
▁bou	-10.7266
▁alcanzou	-10.7278
▁macedonia	-10.7278
▁fer	-10.728
▁limitada	-10.7295
▁pierre	-10.7298
▁agrupacion	-10.7308
▁mclaren	-10.7309
▁litoral	-10.7309
▁apenas	-10.731
▁nalgunha	-10.7314
σ	-10.7315
▁glicosa	-10.7319
▁longas	-10.7321
▁compre	-10.7335
▁especializada	-10.7337
▁circulo	-10.7338
▁coristanco	-10.7342
▁marcos	-10.7353
▁death	-10.7353
▁documentos	-10.7361
stru	-10.7362
▁proporciona	-10.7363
▁emision	-10.7368
ense	-10.7371
▁estocolmo	-10.7372
▁traxectoria	-10.7373
frac	-10.7374
▁circular	-10.7376
▁aquel	-10.7377
▁intento	-10.738
▁enorme	-10.738
ο	-10.738
▁kong	-10.7386
▁rodado	-10.739
▁universidades	-10.7394
▁noruegues	-10.7394
▁sementes	-10.7397
▁gallego	-10.7399
pin	-10.7404
▁informatica	-10.7405
▁house	-10.7406
▁tenerife	-10.7407
▁dvd	-10.7407
mal	-10.7411
▁fiz	-10.7414
▁calcio	-10.7414
tsu	-10.7423
▁eucariotas	-10.7425
sti	-10.7429
▁aranga	-10.7431
▁concedido	-10.7436
▁obxectivos	-10.7438
tic	-10.7444
▁euros	-10.7447
▁000,0	-10.7452
loxia	-10.7453
▁sha	-10.7454
tte	-10.7457
▁publicas	-10.7458
▁tai	-10.746
▁proposito	-10.7464
isto	-10.7464
▁−	-10.7466
pop	-10.7466
▁toronto	-10.7468
▁orientais	-10.7468
▁fosfato	-10.747
▁sindrome	-10.7472
▁up	-10.7473
▁xxi	-10.7482
▁familiar	-10.7486
▁visual	-10.7492
▁amosa	-10.7494
▁declarada	-10.7496
▁et	-10.7497
▁vencedor	-10.7497
mis	-10.7498
▁pamplona	-10.75
▁xudicial	-10.75
▁especialista	-10.75
▁alejandro	-10.7502
▁dinamarques	-10.7503
▁somozas	-10.7507
▁ad	-10.7513
▁casal	-10.7521
ld	-10.7522
cidade	-10.7525
rea	-10.7536
▁covas	-10.7548
mais	-10.7552
▁ares	-10.7553
▁maquina	-10.756
ˈ	-10.7561
▁ligas	-10.7563
▁beisbol	-10.7564
▁bolivia	-10.757
▁afecta	-10.7572
▁arena	-10.7574
cro	-10.7578
cri	-10.7583
▁situados	-10.7584
red	-10.7588
▁estudou	-10.7589
▁tribos	-10.759
▁mos	-10.7592
▁posibilidade	-10.7594
▁tendencia	-10.7595
▁falado	-10.7595
▁fantasia	-10.7597
▁primavera	-10.7597
▁cerebro	-10.7597
▁cabeceira	-10.7597
▁steve	-10.7599
▁temporal	-10.76
▁acb	-10.7601
▁bos	-10.7601
▁precisa	-10.7601
▁concretamente	-10.7602
▁saturno	-10.7603
▁bro	-10.7604
▁temperaturas	-10.7608
esta	-10.7608
▁life	-10.7613
▁procedentes	-10.7619
▁sabe	-10.762
bus	-10.7623
▁barro	-10.7626
▁mundiais	-10.7629
▁brollon	-10.7629
▁zeus	-10.7632
▁fox	-10.764
▁faro	-10.7647
bio	-10.7652
▁servir	-10.7657
▁montenegro	-10.7662
▁matriz	-10.7662
▁estreita	-10.7668
▁componen	-10.767
▁clasificado	-10.768
▁clado	-10.7683
▁personalidade	-10.7693
▁dramaturgo	-10.7694
▁sucesion	-10.7694
▁infeccion	-10.7696
▁resolucion	-10.7696
▁tribunal	-10.7696
▁conflitos	-10.7709
▁concerto	-10.7712
▁naturalista	-10.7716
▁lamas	-10.7716
▁conforman	-10.7716
▁significativa	-10.7721
▁moda	-10.7722
uta	-10.7722
▁secundario	-10.7726
▁asentamento	-10.7727
▁teresa	-10.7729
▁balonman	-10.773
▁christian	-10.773
▁situadas	-10.7733
selle	-10.7733
▁numismatica	-10.7734
▁emprego	-10.7736
▁fronteiras	-10.774
▁cea	-10.7742
▁estende	-10.7744
▁gri	-10.7752
▁proposta	-10.776
▁orientacion	-10.776
▁pouca	-10.7761
▁tradutor	-10.7763
▁islam	-10.7772
nome	-10.7774
bng	-10.7777
sol	-10.7777
▁mana	-10.7781
ist	-10.7782
▁mad	-10.7784
▁demanda	-10.7786
▁doutor	-10.7788
▁eixo	-10.779
▁ال	-10.779
▁pseudonimo	-10.7793
▁intercambio	-10.7793
▁ambientado	-10.7794
▁previamente	-10.7795
▁nativo	-10.7795
ste	-10.7795
▁botanica	-10.7796
▁tropical	-10.7799
▁fraga	-10.78
▁autora	-10.7805
▁lou	-10.7806
cle	-10.7806
▁jon	-10.7807
▁trazos	-10.7808
mel	-10.7808
▁gua	-10.7812
▁abu	-10.7816
ainda	-10.7821
burg	-10.7823
tel	-10.7824
▁xudeus	-10.7826
▁contorna	-10.7826
▁xeometria	-10.7826
▁verdes	-10.7828
▁osos	-10.7829
▁dedicado	-10.783
▁escritura	-10.7831
▁oral	-10.7832
▁esencial	-10.7836
usa	-10.7837
▁acada	-10.7839
die	-10.7847
▁hard	-10.7847
▁mata	-10.785
▁alo	-10.7856
▁spa	-10.7858
▁claro	-10.7858
▁emitida	-10.786
▁canles	-10.786
▁eleccion	-10.786
▁barrios	-10.786
nar	-10.7861
▁croata	-10.7861
▁curva	-10.7863
stro	-10.7864
▁teorias	-10.7864
▁setima	-10.7864
▁carta	-10.7864
rro	-10.7869
▁imp	-10.787
▁bad	-10.7872
▁libreto	-10.7879
▁muro	-10.7883
wan	-10.7883
▁cova	-10.7883
rd	-10.7886
▁rapida	-10.7892
▁adiante	-10.7893
▁dialectos	-10.7895
▁descricion	-10.7896
▁cangas	-10.7898
▁tipico	-10.7902
▁interaccion	-10.7915
у	-10.7918
▁automobil	-10.792
▁queixo	-10.7924
▁longametraxe	-10.7928
▁traducida	-10.7929
▁civilizacion	-10.7931
encia	-10.7934
▁hip	-10.7936
▁centrase	-10.7936
pel	-10.7939
▁pas	-10.7944
▁ger	-10.7952
▁marte	-10.7957
▁licenza	-10.7962
▁recompilatorio	-10.7962
▁transformacion	-10.7964
▁‘	-10.7966
▁componse	-10.797
▁femias	-10.7974
▁ds	-10.7978
vila	-10.798
▁sociedades	-10.7991
▁sucedeu	-10.7993
▁stadium	-10.7993
▁avenida	-10.7993
▁recadacion	-10.7994
▁require	-10.7995
▁etnico	-10.7997
ves	-10.8
▁debutou	-10.8
▁incremento	-10.8006
▁nucleotidos	-10.8007
▁promover	-10.801
▁proximidades	-10.8019
▁pat	-10.8023
▁realizan	-10.8026
▁acabou	-10.8027
▁praias	-10.8028
▁departamentos	-10.8034
▁adoptada	-10.8035
▁gala	-10.8037
▁trece	-10.8037
▁exteriores	-10.8039
ador	-10.8045
▁jim	-10.8048
▁bens	-10.8054
▁machos	-10.8054
▁lados	-10.8056
▁dominguez	-10.8061
▁vapor	-10.8063
▁naval	-10.8066
▁regras	-10.8068
▁capas	-10.8069
▁tradicions	-10.8071
▁parella	-10.8072
▁signo	-10.8074
▁redes	-10.8079
▁substituir	-10.8083
cra	-10.8084
▁bolo	-10.8095
▁escuro	-10.81
▁refire	-10.8102
tada	-10.8105
▁casou	-10.8105
▁rexionais	-10.8109
▁proto	-10.811
▁axudar	-10.8116
▁produtora	-10.8118
▁uruguai	-10.8122
▁establecer	-10.8122
torio	-10.8123
yama	-10.8124
▁relato	-10.8124
▁ambiental	-10.8124
rs	-10.8126
▁antifranquista	-10.8129
▁schumacher	-10.8129
▁atletico	-10.8129
▁sul	-10.813
lus	-10.8132
▁monarca	-10.8134
▁conseguiron	-10.8136
▁negocios	-10.8137
▁separado	-10.8142
bro	-10.8151
▁descendentes	-10.8151
▁estableceu	-10.8153
▁vega	-10.816
▁africana	-10.8163
▁conseguindo	-10.8163
▁existiu	-10.8163
▁douglas	-10.8164
▁napoles	-10.8164
▁ambolos	-10.8166
▁protexer	-10.8166
▁festas	-10.8166
▁xeografico	-10.8168
▁elevado	-10.817
▁sinonimo	-10.8171
▁estacions	-10.8171
▁britanicos	-10.8179
▁gobernou	-10.8182
▁guia	-10.8185
▁guipuscoa	-10.8186
▁johann	-10.8186
▁soldados	-10.8187
▁estadounidenses	-10.8192
▁desaparicion	-10.8198
▁infeccions	-10.8199
▁ribas	-10.8202
▁barreira	-10.8204
▁xu	-10.8205
▁comida	-10.8208
▁destinos	-10.8213
▁incluia	-10.8215
▁amigos	-10.8219
▁intelectual	-10.822
▁mir	-10.8223
▁historiadores	-10.8223
▁santuario	-10.8232
▁christopher	-10.8233
▁adicada	-10.8233
▁vexetais	-10.8233
▁regulacion	-10.8239
▁rus	-10.824
▁mandato	-10.824
▁titulado	-10.8242
▁explica	-10.8247
▁dixo	-10.8248
ach	-10.8248
▁terminal	-10.8254
fri	-10.8255
▁0.00000	-10.8261
▁asociados	-10.8262
▁proclamou	-10.8267
▁usuarios	-10.8268
▁mike	-10.8268
▁vilarino	-10.8272
▁alex	-10.8272
▁ortodoxa	-10.8273
▁perspectiva	-10.8273
▁doutro	-10.8274
▁decreto	-10.8275
ot	-10.8277
▁chaira	-10.8283
▁band	-10.8286
▁deportistas	-10.8287
т	-10.8289
lie	-10.829
▁000-000	-10.8291
▁derivados	-10.8291
▁rodas	-10.8292
off	-10.8293
▁economicos	-10.8293
nce	-10.8298
▁moral	-10.8299
▁microsoft	-10.8302
▁grammy	-10.8302
▁μ	-10.8307
▁indico	-10.8309
▁caracteristico	-10.8309
▁canaria	-10.8311
▁remo	-10.8321
bert	-10.8323
▁carbon	-10.8324
▁froitos	-10.833
tacion	-10.8331
▁nativos	-10.8331
ona	-10.8332
▁folla	-10.8337
▁warner	-10.8337
▁center	-10.834
▁baviera	-10.834
▁islandia	-10.8342
▁adoptado	-10.8346
zas	-10.8348
▁sor	-10.835
▁rexistra	-10.8357
▁modernas	-10.836
▁permitiu	-10.8362
tidos	-10.8364
▁electoral	-10.8372
▁mamede	-10.8372
▁desemboca	-10.8373
▁solucion	-10.8376
op	-10.8377
▁salon	-10.8379
▁estimase	-10.838
▁define	-10.838
▁causar	-10.8383
▁derrota	-10.8383
▁raios	-10.8388
▁sona	-10.839
▁mesia	-10.839
▁pastor	-10.839
▁massachusetts	-10.8392
vas	-10.8398
▁funcional	-10.84
▁by	-10.8401
▁anthony	-10.8407
▁equilibrio	-10.8407
▁superficial	-10.8407
▁cervantes	-10.8409
til	-10.8409
▁hormona	-10.8411
▁ford	-10.8415
▁cabalos	-10.8415
▁reunion	-10.8416
▁contar	-10.8417
ting	-10.8418
▁encargado	-10.8422
▁inspirado	-10.843
▁transbordador	-10.8436
pes	-10.8438
▁placas	-10.8438
▁ficticio	-10.8442
▁provocou	-10.8442
▁mercedes	-10.8442
▁basilica	-10.8442
▁aviacion	-10.8443
▁marcas	-10.8444
eiras	-10.8449
ok	-10.8449
▁asiatico	-10.8454
▁actuacions	-10.8472
sar	-10.8473
len	-10.8475
▁constituido	-10.8487
▁maia	-10.849
▁paio	-10.8492
▁ruas	-10.8504
κ	-10.8507
▁atp	-10.8509
dra	-10.8509
▁declarou	-10.8513
▁introducion	-10.8513
▁transferencia	-10.8513
▁discografica	-10.8513
▁usados	-10.8516
▁team	-10.8517
▁castrelo	-10.8522
▁porcion	-10.8526
gna	-10.8528
▁disputada	-10.8536
▁munic	-10.8539
▁convencion	-10.8541
▁membranas	-10.8542
▁palas	-10.8544
sky	-10.8546
▁atletismo	-10.8548
▁bierzo	-10.8548
▁bulgaria	-10.8548
▁probabilidade	-10.8549
}}	-10.855
ag	-10.8552
▁fur	-10.8553
▁exerceu	-10.8555
▁especificos	-10.8557
▁serian	-10.8557
▁alacant	-10.8559
▁seguiu	-10.856
▁atravesa	-10.8561
▁east	-10.8561
▁cambiar	-10.8562
▁comunicacions	-10.8564
▁carral	-10.8566
▁presentado	-10.8568
▁realmente	-10.8569
▁cabe	-10.8574
▁ch	-10.858
▁insua	-10.8584
▁fundamentais	-10.8584
▁florencia	-10.8586
▁destrucion	-10.8587
▁ton	-10.8587
▁salamanca	-10.8587
▁shin	-10.8592
hu	-10.8593
▁vol	-10.8595
ade	-10.8595
coa	-10.8597
▁costeira	-10.8598
zar	-10.8601
pia	-10.8602
▁electronico	-10.8605
▁paradela	-10.8606
▁interno	-10.861
▁fenomenos	-10.8617
▁orzamento	-10.862
▁etiopia	-10.862
▁soberania	-10.862
▁narrativa	-10.8621
▁at	-10.8622
▁norma	-10.8622
▁sacro	-10.8623
▁cambiou	-10.8623
▁gen	-10.8625
ken	-10.8631
▁concreto	-10.8631
▁inicios	-10.8631
ə	-10.8639
▁definido	-10.8643
▁andrew	-10.8658
▁vecina	-10.8658
▁marrocos	-10.866
▁baiona	-10.8661
▁ram	-10.8662
ins	-10.8662
▁00-00	-10.8662
tado	-10.8665
▁plural	-10.8666
▁conexion	-10.8668
_{	-10.8673
▁paxinas	-10.8676
▁kim	-10.8688
▁porteiro	-10.869
▁poderian	-10.8692
▁afganistan	-10.8693
▁meis	-10.8695
▁viaxes	-10.8697
▁beiras	-10.8697
▁xirona	-10.8699
▁brion	-10.87
▁sada	-10.8702
▁practicas	-10.8703
▁documento	-10.8704
▁oficina	-10.8707
▁espirito	-10.8708
▁acontecementos	-10.8712
▁pau	-10.8712
▁bru	-10.8716
▁monumentos	-10.8717
▁road	-10.8718
sin	-10.8719
ab	-10.8719
▁publicados	-10.873
▁ivan	-10.873
az	-10.873
▁iniciou	-10.873
▁mexicana	-10.8731
▁baleira	-10.8731
▁barroco	-10.8734
▁quince	-10.8734
▁debate	-10.8735
▁hotel	-10.8736
▁zu	-10.8736
▁kan	-10.874
▁decision	-10.8741
▁cabaleiro	-10.8744
futbolista	-10.8745
▁walt	-10.8748
▁publicos	-10.8752
▁investigador	-10.8757
zan	-10.8757
▁anticorpos	-10.8762
▁manon	-10.8763
▁alfoz	-10.8764
▁corporation	-10.8764
▁xurisdicion	-10.8764
▁fotografo	-10.8764
ي	-10.8765
▁centrais	-10.8766
▁levaron	-10.8766
▁atlas	-10.8767
▁estando	-10.877
▁exerce	-10.877
▁antas	-10.8771
▁ran	-10.8773
▁senora	-10.8781
▁col	-10.8781
▁tomas	-10.8783
toria	-10.8793
▁constitucional	-10.88
▁tailandia	-10.8801
▁reducion	-10.8802
▁constantinopla	-10.8802
▁nunez	-10.881
▁ian	-10.8813
▁posta	-10.8815
▁tecnico	-10.8815
▁revolta	-10.8816
▁primaria	-10.8817
▁comparte	-10.8825
▁otoman	-10.8827
▁ai	-10.8829
▁ken	-10.8829
▁tena	-10.8835
▁existente	-10.8836
▁guatemala	-10.8837
zon	-10.8839
▁considerar	-10.8839
▁lewis	-10.8841
▁street	-10.8842
▁formaron	-10.8842
▁moluscos	-10.8845
▁arthur	-10.8846
rna	-10.8847
▁ye	-10.8849
art	-10.885
▁brillante	-10.8852
▁columna	-10.8852
▁privado	-10.8852
ong	-10.8858
▁musulmans	-10.8858
▁contrato	-10.886
▁notable	-10.8864
▁produciuse	-10.8871
▁desembocadura	-10.8874
▁british	-10.8877
▁gotico	-10.8887
ceae	-10.8889
▁linguista	-10.889
▁regulares	-10.8891
mb	-10.8893
▁ensaio	-10.8895
▁empregar	-10.8898
▁lideres	-10.8902
▁relatos	-10.8907
▁diso	-10.8907
▁polimerase	-10.8911
▁joaquin	-10.8911
▁borgona	-10.8911
▁inmediatamente	-10.8913
▁lixeiramente	-10.8914
cc	-10.8916
▁sch	-10.8918
cre	-10.8919
▁queda	-10.892
▁marques	-10.8926
▁laxe	-10.8926
ovich	-10.8929
▁xermanico	-10.8934
▁atleta	-10.8936
ct	-10.8939
▁muscular	-10.8943
▁ab	-10.8947
▁premier	-10.8948
▁lourenzo	-10.8948
ei	-10.8949
aceas	-10.895
▁walter	-10.8953
▁roupa	-10.8954
▁pereiro	-10.8954
▁little	-10.8956
▁definir	-10.8958
▁descendera	-10.8959
▁extensa	-10.896
▁formal	-10.8962
▁fortemente	-10.8964
▁irixoa	-10.8967
▁pretende	-10.8969
▁ray	-10.897
▁candidaturas	-10.8975
▁cuxos	-10.8979
▁bulgaro	-10.8985
▁osixeno	-10.8985
▁toca	-10.8988
▁predominante	-10.8989
ique	-10.8989
▁republicano	-10.8991
▁investigadores	-10.8991
▁lima	-10.8998
و	-10.8998
▁abarca	-10.8999
▁sc	-10.9007
▁show	-10.9009
-00.	-10.9011
▁bosnia	-10.9012
nan	-10.9021
μ	-10.9023
▁durou	-10.903
▁eixe	-10.903
aron	-10.9032
▁visto	-10.9039
▁arqueoloxico	-10.904
▁may	-10.9042
▁colonial	-10.9049
dre	-10.9049
▁desenvolve	-10.9051
▁mol	-10.9052
▁ganadora	-10.9054
▁frase	-10.9058
▁cur	-10.9058
▁influentes	-10.9058
bilidade	-10.9059
kan	-10.9059
▁becerrea	-10.906
▁castroverde	-10.9064
▁steven	-10.9066
▁young	-10.9067
▁system	-10.9067
▁info	-10.9069
▁dieta	-10.9073
▁tipica	-10.9074
ugh	-10.9074
▁jam	-10.9075
▁muinos	-10.9076
▁feira	-10.9077
▁acolle	-10.9079
▁soto	-10.908
▁·	-10.9081
iros	-10.9081
▁fri	-10.9091
▁concorrido	-10.9098
▁montreal	-10.9098
▁discografico	-10.9099
▁desapareceu	-10.9099
▁ditadura	-10.9099
iv	-10.91
▁situa	-10.91
▁pelo	-10.91
▁ferramentas	-10.9101
▁paquistan	-10.9107
▁hospede	-10.9109
▁norteamericana	-10.9114
▁curtametraxe	-10.9116
▁correntes	-10.9119
francia	-10.912
▁titular	-10.9124
oh	-10.9125
▁alt	-10.9128
▁aniversario	-10.9135
oloxia	-10.914
▁espectro	-10.9141
▁fondos	-10.9141
line	-10.9145
▁rap	-10.915
uda	-10.915
▁ideal	-10.915
▁formalmente	-10.9152
▁dialogo	-10.9157
pon	-10.9162
ning	-10.9164
▁eric	-10.9167
▁idiomas	-10.9173
▁elaboracion	-10.9174
▁baralla	-10.9174
▁elevacion	-10.9174
▁major	-10.9175
▁cro	-10.9178
▁pp	-10.9181
▁fases	-10.9184
▁achegar	-10.9188
▁seleccions	-10.9188
hl	-10.9191
▁botanico	-10.9193
▁hong	-10.9197
▁utilizados	-10.9198
▁famosos	-10.9199
▁arteria	-10.92
▁outes	-10.92
▁anxo	-10.9202
▁crustaceos	-10.9207
▁playstation	-10.9211
▁agolada	-10.9211
▁hidro	-10.9217
▁joe	-10.9222
▁ambientes	-10.9232
▁deputado	-10.9232
▁reformas	-10.9234
▁armenio	-10.9235
▁gre	-10.9244
▁vitimas	-10.9246
▁considerarse	-10.9246
▁freixo	-10.925
▁deixando	-10.9257
▁roll	-10.9262
ons	-10.9262
▁comparten	-10.9263
▁mecanismos	-10.9265
nie	-10.9268
tres	-10.9269
axuda	-10.9272
▁siria	-10.9274
chu	-10.9276
▁im	-10.9282
▁intensidade	-10.9288
▁tampere	-10.9288
▁aceiro	-10.9288
▁roda	-10.929
▁mestra	-10.9292
fia	-10.9293
▁00,0%	-10.9294
▁finlandes	-10.9294
▁night	-10.9296
ncia	-10.9297
▁hipo	-10.9302
▁gases	-10.9305
kar	-10.9307
▁marta	-10.9309
▁soporte	-10.9311
▁asasinado	-10.9312
hai	-10.9314
▁relixiosas	-10.9317
▁trazo	-10.9319
▁consorte	-10.9326
▁vexetacion	-10.9327
▁pontedeume	-10.9329
▁morreron	-10.9329
▁puxo	-10.933
▁guillerme	-10.9332
iras	-10.9337
▁play	-10.9338
▁mellorar	-10.9338
elo	-10.9339
▁simples	-10.9347
▁autonomica	-10.9348
▁blue	-10.9352
▁heroe	-10.9353
mont	-10.9356
polo	-10.9362
▁compositora	-10.9364
▁beleza	-10.9365
▁composicions	-10.9365
▁caraminal	-10.9366
▁junior	-10.9367
▁conecta	-10.9374
lio	-10.9375
▁bioloxica	-10.9383
▁subrexion	-10.9388
▁empregan	-10.939
far	-10.9394
▁conecense	-10.9396
▁poderes	-10.9398
▁mato	-10.9398
▁espaciais	-10.9404
▁renfe	-10.9404
▁xeografia	-10.9404
▁rob	-10.9407
▁asinou	-10.9409
▁foran	-10.9413
▁gato	-10.9414
▁disciplinas	-10.9416
▁asociadas	-10.9425
uga	-10.9427
▁emitido	-10.9427
▁hipotese	-10.9427
bas	-10.9427
▁proximas	-10.9429
▁pos	-10.943
▁microorganismos	-10.9431
▁result	-10.9431
▁explorador	-10.9442
sio	-10.9442
▁xurista	-10.9443
▁cadro	-10.9443
▁observatorio	-10.9443
▁macizo	-10.9443
▁panama	-10.9443
▁minas	-10.9446
▁pedras	-10.9449
▁integrado	-10.945
▁electrico	-10.9451
▁substituiu	-10.9453
▁converteron	-10.9454
▁discorre	-10.9456
▁mateo	-10.9461
▁inferiores	-10.9461
▁bruce	-10.9463
▁alfredo	-10.9468
▁muino	-10.9473
▁soria	-10.9477
ette	-10.9477
▁ollo	-10.9478
▁derradeira	-10.9482
▁mobil	-10.9483
▁comandante	-10.9483
▁cuestion	-10.9486
▁barcos	-10.9486
sha	-10.9496
▁seguen	-10.9498
ere	-10.95
▁bor	-10.9503
▁plana	-10.9505
▁caracteres	-10.9508
▁unicos	-10.9511
▁posibles	-10.9511
▁bloque	-10.9518
▁cap	-10.9518
▁tio	-10.9519
▁esgrima	-10.9521
▁adoptou	-10.9521
▁permitir	-10.9523
▁triloxia	-10.9525
▁armadas	-10.9533
fl	-10.9539
neo	-10.9539
▁abreviado	-10.9542
▁centos	-10.9543
oides	-10.9546
▁modalidade	-10.9546
▁doutra	-10.9547
▁coreano	-10.9547
▁haber	-10.9549
lum	-10.955
▁arbo	-10.9552
י	-10.9556
▁apertura	-10.956
▁ceramica	-10.9561
▁pilotando	-10.9561
▁deixar	-10.9562
cis	-10.9563
▁sanxenxo	-10.9565
▁quizais	-10.9565
▁frota	-10.9567
▁masas	-10.9567
▁escritas	-10.957
▁podian	-10.9575
har	-10.9579
nada	-10.9583
▁gla	-10.9588
▁are	-10.9591
▁mesmas	-10.9593
▁vela	-10.9598
▁individuais	-10.96
▁dorsal	-10.96
▁mallorca	-10.9602
▁bel	-10.9603
▁alasca	-10.9603
▁gondomar	-10.9604
▁natal	-10.9604
ram	-10.9606
▁xerar	-10.9606
▁proximos	-10.961
▁rodeado	-10.9611
▁alimenta	-10.9614
▁zo	-10.9614
▁danos	-10.9617
▁soneira	-10.9617
▁suramerica	-10.9621
▁causas	-10.9623
▁alxeria	-10.9625
▁doutrina	-10.9626
▁dispositivo	-10.9626
▁vantaxe	-10.9626
▁fluido	-10.9626
ani	-10.9628
▁paisaxe	-10.9629
▁barba	-10.9629
▁tematica	-10.9629
▁activos	-10.9631
▁faise	-10.9632
▁linda	-10.9634
▁soul	-10.9635
ificacion	-10.9636
way	-10.9637
▁ensaista	-10.964
▁rianxo	-10.9644
▁π	-10.9644
▁presidenta	-10.9646
▁alvaro	-10.9648
▁song	-10.965
pres	-10.9655
▁viva	-10.9661
▁illinois	-10.9662
▁paraguai	-10.9662
nal	-10.9664
▁fort	-10.9665
▁piano	-10.9667
▁roger	-10.9667
▁axentes	-10.9672
▁vitamina	-10.9673
rino	-10.9673
▁fre	-10.9676
rri	-10.9676
▁habitats	-10.9677
▁prision	-10.9679
▁seoane	-10.9679
▁substitucion	-10.968
▁seca	-10.9681
▁amarela	-10.9681
▁pinyin	-10.9682
▁arabia	-10.9683
▁mares	-10.9685
ı	-10.9688
▁viu	-10.9688
▁climatico	-10.9688
▁caldas	-10.9688
▁aumentar	-10.969
▁republicana	-10.9691
poli	-10.9692
ding	-10.9693
▁musculos	-10.9693
lei	-10.9705
▁xogan	-10.971
▁gobernante	-10.9711
▁gravou	-10.9719
▁mapa	-10.9723
▁volumes	-10.973
▁pala	-10.9731
ا	-10.9733
▁contos	-10.9741
▁israeli	-10.9742
esa	-10.9744
▁macro	-10.9744
▁variacion	-10.975
▁distinguir	-10.9751
▁orbital	-10.9752
▁parroquial	-10.9753
▁animo	-10.9757
▁interpretada	-10.9758
▁cima	-10.9759
▁explotacion	-10.976
fra	-10.9761
▁identificacion	-10.9761
▁feminismo	-10.9766
▁loxica	-10.9767
▁usou	-10.9769
▁graos	-10.977
▁quimicas	-10.9774
▁nazi	-10.9777
bol	-10.9782
▁nixeria	-10.9786
▁mortos	-10.9791
▁calculo	-10.9792
▁remate	-10.98
▁actuan	-10.9801
▁cooper	-10.9801
▁permaneceu	-10.9806
▁prima	-10.9808
▁panton	-10.9814
▁inventor	-10.9814
▁causada	-10.982
llos	-10.9822
▁captura	-10.9829
▁xudia	-10.983
▁producidos	-10.983
▁fragmentos	-10.983
▁sair	-10.9832
bil	-10.9832
▁vehiculo	-10.9832
▁hans	-10.9839
▁esca	-10.9839
▁boimorto	-10.984
▁alcance	-10.984
▁cooperacion	-10.9842
▁aero	-10.9849
ala	-10.985
▁din	-10.985
▁variacions	-10.9852
▁consideradas	-10.986
▁sectores	-10.986
▁caracterizan	-10.9866
▁cook	-10.9867
inae	-10.9873
▁will	-10.9874
▁rea	-10.9876
ent	-10.9879
0000	-10.988
▁replicacion	-10.9882
▁from	-10.9882
▁largo	-10.9883
▁actuar	-10.9884
▁ingleses	-10.9885
▁hectareas	-10.9888
▁companias	-10.9888
▁emisions	-10.989
▁conecen	-10.9893
▁tony	-10.9894
▁estonia	-10.9899
▁realizados	-10.99
▁mur	-10.9903
▁bin	-10.991
▁desenador	-10.9911
▁hormonas	-10.9912
▁instalacion	-10.9912
▁considerable	-10.9917
▁sh	-10.992
▁ignacio	-10.9922
▁epi	-10.9924
▁dis	-10.9925
▁nicolas	-10.9926
▁pseudo	-10.9927
▁utilizacion	-10.9927
▁metais	-10.9927
▁caminos	-10.9929
▁polinesia	-10.9931
▁lan	-10.9942
▁grove	-10.9943
▁diplomatico	-10.9953
▁visible	-10.9954
ai	-10.9954
▁sintomas	-10.9957
rolling	-10.9958
▁presentaron	-10.996
▁ly	-10.9962
▁rutas	-10.9962
▁alemans	-10.9964
▁arroz	-10.9965
▁glandulas	-10.9968
▁eses	-10.9974
▁terreos	-10.9974
▁pura	-10.9975
▁separadas	-10.9975
▁casco	-10.9979
▁nacionalidade	-10.9979
▁achega	-10.998
▁live	-10.9983
▁bus	-10.9984
ete	-10.9986
vel	-10.9988
▁prost	-10.9989
tivos	-10.9992
▁alcanza	-10.9992
idas	-10.9995
▁astronomo	-10.9995
▁clasicos	-10.9997
▁estrutural	-10.9998
▁irregular	-10.9998
logo	-10.9999
▁integrada	-11
▁residente	-11
▁borbon	-11
▁fire	-11.0001
▁friedrich	-11.0004
▁taylor	-11.0004
▁andorra	-11.0004
▁oliveira	-11.0004
▁kevin	-11.0004
▁narra	-11.0005
ile	-11.0005
▁ruinas	-11.0005
▁cela	-11.0006
▁provoca	-11.0007
▁celebrado	-11.0009
▁serven	-11.0012
▁0,0%	-11.0012
lea	-11.0012
▁senado	-11.0016
▁trigo	-11.0021
edo	-11.0023
▁angola	-11.0028
▁romanes	-11.0029
▁cy	-11.003
▁plasma	-11.0031
▁aragones	-11.0034
▁crea	-11.0036
▁establecida	-11.0037
▁divisions	-11.0042
β	-11.0044
▁frio	-11.0045
gre	-11.0045
▁recuperacion	-11.0046
▁baleares	-11.0048
▁ag	-11.0048
▁rodea	-11.0051
▁electro	-11.0061
▁dentes	-11.0067
▁alma	-11.0068
▁regra	-11.0069
▁ames	-11.0072
▁universitaria	-11.0079
▁articulacion	-11.0079
▁abundante	-11.008
ep	-11.0082
quino	-11.0084
の	-11.0086
▁despoboado	-11.0087
▁palestina	-11.0087
▁triunfo	-11.0087
▁mama	-11.0087
▁subclase	-11.0087
▁trives	-11.0088
▁comparacion	-11.0088
▁util	-11.0092
▁contraste	-11.0092
nto	-11.0093
▁tipicamente	-11.0094
▁sexuais	-11.0095
▁foz	-11.0098
▁realizacion	-11.0101
more	-11.0102
▁bros	-11.0103
▁planetas	-11.0108
entre	-11.011
▁permanece	-11.0112
▁sales	-11.0116
▁limitado	-11.0119
▁devandito	-11.0121
▁democratico	-11.0121
▁definida	-11.0125
itas	-11.0125
nga	-11.0128
▁coro	-11.0128
▁manchester	-11.0128
&	-11.0128
▁restauracion	-11.0128
▁elenco	-11.0129
▁secundarios	-11.0129
▁excepto	-11.0136
▁-0000	-11.0139
▁dispositivos	-11.0142
▁debuxos	-11.0142
▁artico	-11.0145
▁fito	-11.0151
▁mai	-11.0159
▁lonxe	-11.016
▁arredores	-11.0166
▁matt	-11.0167
▁ul	-11.0167
▁merca	-11.0167
▁lipidos	-11.0175
▁reducir	-11.0176
▁adam	-11.0178
▁flora	-11.018
▁fabricado	-11.0181
▁unirse	-11.0183
▁organiza	-11.0184
▁historicas	-11.0187
▁usos	-11.019
anse	-11.0198
▁agra	-11.0203
▁escenario	-11.0208
▁operativo	-11.0209
▁subespecies	-11.0212
▁autodromo	-11.0212
▁figado	-11.0212
▁gobernos	-11.0214
▁fogo	-11.0221
▁graves	-11.0225
▁industriais	-11.0226
ee	-11.0227
▁prato	-11.0227
м	-11.0228
▁medir	-11.0229
▁portela	-11.023
▁gando	-11.0233
▁char	-11.0236
rou	-11.0236
▁copia	-11.0242
▁vales	-11.0246
▁acadan	-11.0247
▁intereses	-11.0247
п	-11.0248
▁discurso	-11.0249
▁bivalvo	-11.0249
▁existir	-11.0252
▁estatura	-11.0252
▁uniuse	-11.0254
▁elizabeth	-11.0254
▁reptiles	-11.0256
kov	-11.0258
▁atomico	-11.0259
▁farina	-11.0262
pto	-11.0264
▁destacar	-11.0265
▁brancas	-11.027
▁ohio	-11.0277
▁cientificas	-11.0281
italia	-11.0284
▁trasladou	-11.0284
▁kor	-11.0285
▁establece	-11.0285
▁dj	-11.0291
▁horta	-11.0293
▁xigante	-11.0293
▁mozo	-11.0296
▁baseados	-11.0296
▁cero	-11.0297
▁libres	-11.0297
▁patrick	-11.0297
▁probabelmente	-11.0297
▁tea	-11.0298
▁xavier	-11.0299
▁beach	-11.0299
▁esqueleto	-11.03
▁campus	-11.03
▁libra	-11.0301
▁vimianzo	-11.0301
▁pc	-11.0307
▁lord	-11.0309
γ	-11.0315
▁noveno	-11.0321
▁outorga	-11.0328
▁xardins	-11.0329
ndi	-11.0334
▁sara	-11.0334
sk	-11.0336
▁fal	-11.0339
▁isaac	-11.034
▁mendez	-11.034
alemana	-11.0342
▁curtas	-11.0343
▁port	-11.0345
▁denominados	-11.0346
▁general	-11.0351
▁santalla	-11.0353
ice	-11.0353
ric	-11.0364
▁empregando	-11.0367
▁encargada	-11.0368
jan	-11.0369
▁ferramenta	-11.0378
▁gris	-11.0379
tr	-11.0381
▁estiveron	-11.0382
▁quintela	-11.0382
▁asturiana	-11.0382
▁adif	-11.0383
▁vexetal	-11.0384
▁tera	-11.0393
▁siberia	-11.0399
▁neto	-11.0401
yan	-11.0401
▁esforzos	-11.0402
▁oficinas	-11.041
▁voto	-11.0411
▁angulo	-11.0414
onde	-11.0416
▁encoro	-11.0417
▁encontranse	-11.0421
ug	-11.0421
▁dominante	-11.0422
▁intervencion	-11.0423
▁interaccions	-11.0423
▁napoleon	-11.0425
▁psicoloxia	-11.0425
ks	-11.0426
▁baseando	-11.0429
▁tocar	-11.043
▁couto	-11.0435
sal	-11.0435
▁varian	-11.044
▁dista	-11.0445
▁lograr	-11.0447
▁pensilvania	-11.0448
▁arias	-11.0451
▁cubano	-11.0457
▁compositores	-11.0459
▁fixa	-11.0464
▁ritmo	-11.0465
▁domestico	-11.0465
▁xenetico	-11.0468
▁montevideo	-11.0468
▁expresa	-11.0468
▁forcarei	-11.0468
▁miami	-11.0469
iti	-11.047
▁clan	-11.0471
▁construtores	-11.0473
▁baile	-11.0476
▁fina	-11.0479
gel	-11.0481
▁sta	-11.0481
▁00:00	-11.0481
▁proporcion	-11.0481
▁come	-11.0483
▁rose	-11.0483
xer	-11.0487
▁incluidas	-11.0487
▁neuro	-11.049
▁lava	-11.0497
▁0'0	-11.0499
▁mit	-11.0502
▁boi	-11.0505
▁erro	-11.051
▁biblia	-11.0511
▁controversia	-11.0511
▁inmunitario	-11.0511
▁deputacion	-11.0511
▁generalitat	-11.0511
ω	-11.0512
▁lucro	-11.0513
▁cartas	-11.0513
▁hugo	-11.0515
▁ministra	-11.0517
▁cinemas	-11.0517
▁aminoacido	-11.0517
mir	-11.0518
wo	-11.0518
▁vin	-11.0523
▁tel	-11.0525
▁comezar	-11.0525
▁nino	-11.053
▁chegan	-11.053
▁reproducir	-11.0531
";	-11.0536
▁apareceron	-11.0536
cent	-11.0537
fina	-11.0539
▁rodeada	-11.0547
­	-11.0548
▁interpretacions	-11.0552
▁establecido	-11.0553
cino	-11.0554
▁filadelfia	-11.0555
▁airways	-11.0555
▁vixente	-11.0555
▁configuracion	-11.0556
▁diferenciacion	-11.0557
pas	-11.0558
▁cafe	-11.0559
▁sm	-11.0562
▁caeu	-11.0563
▁ara	-11.0566
▁god	-11.0571
uf	-11.0572
af	-11.0574
▁disto	-11.0576
▁creando	-11.0585
stri	-11.0588
▁novamente	-11.0588
-0,	-11.0591
▁estudios	-11.0591
▁south	-11.0593
▁barra	-11.0593
▁disposicion	-11.0597
▁suxeito	-11.0597
▁usuario	-11.0598
▁selva	-11.0598
ung	-11.0598
▁unilingue	-11.0598
▁referido	-11.0599
▁debuxante	-11.0599
▁fosil	-11.0599
▁organicos	-11.0599
▁adicado	-11.06
▁leb	-11.06
▁elevada	-11.06
sina	-11.06
▁nordica	-11.0601
lada	-11.0602
▁positivas	-11.0602
▁kara	-11.0604
pho	-11.0605
▁fisicas	-11.0607
▁alimentan	-11.0611
fin	-11.0611
▁lendas	-11.0611
▁linares	-11.0612
▁space	-11.0614
▁francis	-11.0615
bb	-11.0617
▁estetica	-11.062
ky	-11.0626
▁apolo	-11.0627
▁down	-11.0629
▁ler	-11.0639
▁estranxeira	-11.0642
▁colectivo	-11.0642
▁facultade	-11.0642
▁substrato	-11.0642
▁galizionario	-11.0642
▁ascendencia	-11.0642
▁herdanza	-11.0642
▁romero	-11.0643
cando	-11.0646
▁nucleares	-11.0655
▁recuperar	-11.0666
ama	-11.0667
▁atomo	-11.0668
/0000	-11.0668
iu	-11.0668
▁oceanos	-11.0669
▁gravacions	-11.0671
▁rene	-11.0674
▁ramas	-11.0678
▁rematar	-11.0678
▁identificar	-11.0682
eda	-11.0685
▁vilasantar	-11.0686
▁extinta	-11.0686
▁covelo	-11.0686
▁subespecie	-11.0687
▁desenvolveron	-11.0687
▁college	-11.0687
▁barreiro	-11.0687
▁intelixencia	-11.0688
▁codificada	-11.0689
▁cincuenta	-11.0692
▁agrupa	-11.0692
port	-11.0694
▁protocolo	-11.0703
▁kra	-11.0705
▁feitas	-11.0707
▁arca	-11.0709
▁francois	-11.0714
▁grafica	-11.0715
▁sai	-11.0717
▁danza	-11.0718
actual	-11.0722
▁selos	-11.0722
00,	-11.0729
▁00°0′00.00′′	-11.0731
▁howard	-11.0731
▁catalogo	-11.0731
▁xudeu	-11.0731
▁crenza	-11.0733
▁afirma	-11.0733
▁controlar	-11.0735
▁anne	-11.0737
▁jacques	-11.0738
▁revolucionario	-11.074
maioritariamente	-11.0747
▁-00	-11.0754
▁rois	-11.0754
▁tiro	-11.0756
rat	-11.0758
▁produtores	-11.076
fosfato	-11.0761
▁dr	-11.0764
eus	-11.0765
▁alcaldesa	-11.0773
▁pere	-11.0773
well	-11.0774
▁catorce	-11.0775
▁fluvial	-11.0775
chan	-11.0776
ell	-11.0776
▁iraq	-11.0777
▁dineiro	-11.0777
▁moore	-11.0777
▁fachada	-11.0779
▁convento	-11.0784
▁constantino	-11.0784
▁lucas	-11.0785
▁gama	-11.0785
▁mostras	-11.0785
▁diana	-11.0788
▁jane	-11.0791
▁formaba	-11.0791
▁acompanado	-11.0796
▁min	-11.0797
ος	-11.0798
ft	-11.0798
▁aumenta	-11.0799
▁construcions	-11.0801
τ	-11.0801
sis	-11.0802
▁corgo	-11.0802
▁alterna	-11.0804
▁bon	-11.0804
▁polar	-11.0805
ev	-11.0814
estado	-11.0815
▁posibel	-11.0815
▁operado	-11.0818
▁llobregat	-11.082
▁mediterranea	-11.082
▁destacados	-11.0821
▁aliados	-11.0821
▁xixon	-11.0822
▁xornadas	-11.0823
▁clasificados	-11.0824
▁touro	-11.0825
▁representada	-11.0827
▁virxinia	-11.083
▁baix	-11.0832
ms	-11.0836
▁colo	-11.0838
▁0,000	-11.084
ray	-11.0842
pio	-11.0842
▁north	-11.0844
▁nilo	-11.0845
▁citoplasma	-11.0856
▁clo	-11.0856
▁0000-00.	-11.0857
ari	-11.0858
▁encarga	-11.0863
л	-11.0864
ɪ	-11.0865
▁detroit	-11.0865
▁salvaterra	-11.0865
▁esperanza	-11.0865
▁luxemburgo	-11.0868
vio	-11.0868
▁influente	-11.0868
▁basicamente	-11.0869
▁propietario	-11.087
▁sport	-11.087
▁porrino	-11.0871
▁eido	-11.0882
▁industrias	-11.0885
mica	-11.0886
▁diferencia	-11.0892
▁augusto	-11.0894
▁bull	-11.0901
к	-11.0903
▁regula	-11.0906
▁gal	-11.0909
loxica	-11.091
▁paderne	-11.091
▁pescozo	-11.091
▁pivote	-11.091
▁aparato	-11.091
▁taiwan	-11.0912
▁eslovaquia	-11.0912
qua	-11.0913
▁maritimo	-11.0916
▁observacion	-11.0916
▁combina	-11.0917
▁baltico	-11.092
▁senna	-11.0921
▁bola	-11.0924
phi	-11.0932
yer	-11.094
grama	-11.0941
stre	-11.0941
zer	-11.0941
nor	-11.0948
▁tarefas	-11.095
▁relixiosos	-11.0952
▁mera	-11.0953
▁boas	-11.0955
▁hamilton	-11.0955
▁beneficios	-11.0955
▁tintin	-11.0955
▁lotus	-11.0959
▁distinta	-11.0959
▁froitas	-11.0959
▁saxonia	-11.096
▁aereo	-11.096
▁segmento	-11.0962
nny	-11.0962
▁sudan	-11.0964
▁residentes	-11.0967
▁irixo	-11.0977
▁conecementos	-11.0978
cua	-11.098
ivo	-11.0983
▁longos	-11.0987
and	-11.0989
▁ganada	-11.0989
pri	-11.0991
▁paseo	-11.0996
▁xuntos	-11.0999
▁execucion	-11.1
▁tampouco	-11.1
▁renault	-11.1
▁times	-11.1001
▁toro	-11.1001
▁ocasionalmente	-11.1001
bos	-11.1002
▁chipre	-11.1002
▁provisional	-11.1004
▁introducido	-11.1004
▁academica	-11.1005
▁establecemento	-11.1005
cito	-11.1006
▁kanto	-11.1008
▁significativo	-11.1009
ate	-11.1009
▁your	-11.1011
▁emite	-11.1017
▁contidos	-11.1021
glo	-11.1021
▁ataques	-11.1023
▁vir	-11.1023
▁tramo	-11.1026
▁tetra	-11.1027
▁marcou	-11.1031
▁banos	-11.1035
culo	-11.1038
aga	-11.1039
bon	-11.1039
▁stra	-11.1044
▁brooklyn	-11.1046
▁pianista	-11.1046
▁samuel	-11.1046
▁morrazo	-11.1046
▁airbus	-11.1047
▁aplica	-11.1047
▁ambientada	-11.1047
low	-11.1049
tados	-11.1049
▁basica	-11.105
▁distincion	-11.1051
▁estratexia	-11.1051
▁postos	-11.1054
gran	-11.1054
xina	-11.1055
▁dream	-11.1056
▁kent	-11.1059
tida	-11.1067
▁artur	-11.1068
▁high	-11.1073
▁ameaza	-11.1076
▁mobiles	-11.1076
cta	-11.1076
iri	-11.1077
▁propiamente	-11.1079
▁hetero	-11.1083
wood	-11.1085
▁(00)	-11.1086
▁parcial	-11.1088
▁hel	-11.109
▁bruxelas	-11.1092
▁eslovenia	-11.1092
▁teorema	-11.1092
▁guntin	-11.1092
▁reparacion	-11.1092
▁spin	-11.1094
▁seguida	-11.1095
▁basket	-11.1095
▁investigadora	-11.1096
▁competencia	-11.1098
▁pasan	-11.1098
▁volver	-11.1099
▁xurado	-11.1101
▁euskadi	-11.1101
▁johnson	-11.1106
▁ross	-11.1111
▁sae	-11.1121
gou	-11.113
liga	-11.1138
▁explicar	-11.1138
▁state	-11.1139
▁kiev	-11.114
▁plasmatica	-11.114
▁albania	-11.1143
▁poidan	-11.1144
ller	-11.1147
ple	-11.1148
▁superar	-11.1149
▁helen	-11.1154
▁alfred	-11.1154
▁terzo	-11.1156
ו	-11.1165
▁ovo	-11.1167
cida	-11.1169
uni	-11.1169
tru	-11.1175
ema	-11.1179
▁portada	-11.1182
▁plataformas	-11.1182
ant	-11.1183
▁antartida	-11.1184
▁poligono	-11.1184
▁cirilico	-11.1184
▁supremo	-11.1184
▁canta	-11.1185
▁millas	-11.1186
mentos	-11.1187
▁barcala	-11.1187
xenese	-11.1187
▁defensor	-11.1188
▁maquinas	-11.1189
dica	-11.1192
▁gol	-11.1193
▁davis	-11.1199
char	-11.1202
▁ministros	-11.1203
▁aerolinas	-11.1209
real	-11.1213
▁carlo	-11.1216
▁mari	-11.1217
uli	-11.1223
▁regreso	-11.1225
▁representou	-11.1231
▁introduciu	-11.1231
▁marshall	-11.1231
▁salomon	-11.1231
▁editora	-11.1232
gada	-11.1235
▁gli	-11.1236
▁colexio	-11.1238
▁ac	-11.124
▁cam	-11.1242
▁illotes	-11.1243
▁}	-11.1247
ika	-11.1248
▁humor	-11.1249
▁medra	-11.1251
▁rivera	-11.1251
▁ibn	-11.1252
▁lisa	-11.1255
▁espanolas	-11.126
▁definese	-11.1263
▁cin	-11.1263
▁ji	-11.1267
▁tubo	-11.1272
hoxe	-11.1274
▁day	-11.1275
vol	-11.1276
▁belarus	-11.1277
▁inaugurou	-11.1277
▁tripulacion	-11.1277
▁bioquimica	-11.1278
▁cerdido	-11.1278
▁felix	-11.1279
▁boqueixon	-11.128
▁atlanta	-11.128
▁seguidores	-11.1281
▁periodica	-11.1281
▁facilmente	-11.1281
▁coiro	-11.1281
▁benito	-11.1284
tivas	-11.1285
▁ferreiro	-11.1287
fre	-11.1288
▁espera	-11.1289
▁palmas	-11.1292
▁hemo	-11.1292
▁bala	-11.1292
▁repartidos	-11.1294
▁estatua	-11.1296
▁variables	-11.1297
▁realizadas	-11.13
▁marido	-11.13
▁clasificacions	-11.1304
▁rival	-11.1309
▁aquelas	-11.1312
▁lar	-11.1312
▁00.0000	-11.1315
▁ramos	-11.1316
ds	-11.1317
▁utilizarse	-11.132
alpes	-11.132
▁indias	-11.1321
▁decima	-11.1324
ა	-11.1324
▁monetaria	-11.1325
▁zoologo	-11.1325
▁filologo	-11.1325
▁ruiz	-11.1326
▁pinturas	-11.1326
▁coproducion	-11.1328
▁evolutiva	-11.1328
▁barbara	-11.1331
▁correspondentes	-11.1332
▁cambados	-11.1332
▁paralelo	-11.1333
▁preparacion	-11.1334
▁baron	-11.1335
▁trazado	-11.1338
▁obriga	-11.1342
▁formados	-11.1347
▁nick	-11.135
▁pireneos	-11.1358
bru	-11.1359
smo	-11.1359
▁gon	-11.136
▁americanos	-11.136
▁tension	-11.1361
▁best	-11.1362
▁incio	-11.1363
▁saber	-11.1364
mino	-11.1365
pontevedra	-11.1365
▁rato	-11.1369
-000.	-11.1369
▁kenya	-11.137
cla	-11.1371
▁cambridge	-11.1372
▁folgoso	-11.1372
▁infancia	-11.1372
▁porcentaxe	-11.1372
gueira	-11.1373
▁portos	-11.1375
▁traba	-11.1375
▁nelson	-11.1376
н	-11.1379
▁dc	-11.1379
▁residuos	-11.138
▁papua	-11.1381
▁tripulada	-11.1381
▁bri	-11.1384
▁minimo	-11.1384
▁presentacion	-11.1387
▁turca	-11.1388
▁dance	-11.1389
▁cle	-11.139
▁ligamento	-11.139
▁fria	-11.1394
evich	-11.1396
able	-11.1398
▁espa	-11.14
▁estranxeiros	-11.1407
▁entra	-11.1411
▁wo	-11.1416
▁ordenador	-11.1417
▁axudou	-11.1419
▁bizantina	-11.1419
▁ambientais	-11.1419
▁iniciais	-11.142
▁nomenclatura	-11.142
▁representacions	-11.1422
▁domesticos	-11.1422
▁utilizanse	-11.1424
▁posesion	-11.1429
▁andaluz	-11.1429
▁especificas	-11.143
▁age	-11.1434
vida	-11.1434
▁fia	-11.1435
und	-11.1435
▁complexa	-11.1436
▁friol	-11.1437
ر	-11.1439
▁quente	-11.144
▁elite	-11.144
▁certame	-11.144
▁esfera	-11.1443
▁aplicase	-11.1445
ια	-11.1449
▁macho	-11.1455
rga	-11.146
▁novena	-11.1464
dous	-11.1466
ი	-11.1466
▁gonzalo	-11.1467
▁fotosintese	-11.1467
▁vinilo	-11.1467
▁amazonas	-11.1467
▁perder	-11.1468
▁teologo	-11.1469
▁abundancia	-11.1469
tipo	-11.1475
▁0-	-11.1477
▁endemica	-11.1477
▁proximidade	-11.1478
▁muralla	-11.1479
▁reconece	-11.1482
▁coli	-11.1484
▁sonic	-11.1485
▁desenvolveuse	-11.1488
▁vital	-11.149
▁tecnoloxias	-11.1491
tv	-11.1496
▁dirixe	-11.1505
▁bas	-11.151
▁chileno	-11.151
▁artificiais	-11.1514
▁astronomia	-11.1514
▁audiovisual	-11.1514
▁sky	-11.1516
▁xenebra	-11.1516
▁dramatica	-11.1519
▁lleida	-11.1521
▁xardin	-11.1523
ruso	-11.1525
▁estranxeiro	-11.1526
π	-11.1528
▁brazo	-11.1528
ich	-11.1532
▁cuestions	-11.1536
▁catolicos	-11.1536
▁indican	-11.1538
ø	-11.1539
▁francos	-11.154
ceas	-11.1541
▁igualmente	-11.1542
stan	-11.1547
▁rallys	-11.1548
chen	-11.1551
▁determinados	-11.1553
▁vasos	-11.1555
▁-000.00000	-11.1559
▁asociacions	-11.156
▁000°00′	-11.1563
▁interpretou	-11.1563
▁vicepresidente	-11.1563
▁outono	-11.1564
▁adestra	-11.1565
▁millo	-11.1566
▁hawai	-11.1567
town	-11.1568
▁andrade	-11.1568
iya	-11.1568
zh	-11.1572
▁triangulo	-11.1574
▁she	-11.1574
▁pacto	-11.1575
▁celebre	-11.1575
▁pioneiro	-11.1575
▁enfrontaron	-11.1576
uno	-11.1578
▁thor	-11.1579
zy	-11.158
▁hor	-11.1581
▁prol	-11.1582
▁eclesiastica	-11.1583
▁deportivas	-11.1588
forma	-11.1591
▁nomeamento	-11.1592
▁circunstancias	-11.1595
ello	-11.1598
▁visitantes	-11.1599
▁vina	-11.1601
▁carbonos	-11.1605
▁roque	-11.161
▁esquerdo	-11.1611
▁lectura	-11.1611
▁petersburgo	-11.1611
▁relevancia	-11.1611
▁redonda	-11.1611
▁malpica	-11.1611
▁inclinacion	-11.1611
▁bbc	-11.1612
▁contan	-11.1612
▁cristal	-11.1612
▁story	-11.1612
▁aprendizaxe	-11.1613
▁lituania	-11.1615
▁frecuentes	-11.1617
afi	-11.1618
▁retirouse	-11.162
▁ions	-11.162
▁mantenen	-11.1622
▁arqueologo	-11.1624
▁erupcion	-11.1624
▁contemporaneo	-11.1624
nidos	-11.1626
▁candidatura	-11.1627
▁mei	-11.1628
▁emitiu	-11.1635
▁ocupar	-11.1643
acronimo	-11.1654
▁segmentos	-11.1655
ト	-11.1659
▁ferroviario	-11.1659
▁galeguista	-11.1659
▁kyushu	-11.1659
▁seattle	-11.1659
▁rebelion	-11.166
sos	-11.1661
▁esenciais	-11.1661
▁contribucions	-11.1664
▁sergio	-11.1664
▁sierra	-11.1666
▁presentadora	-11.1666
▁pal	-11.1668
log	-11.167
voz	-11.1672
▁valentin	-11.1672
▁mensaxe	-11.1673
yn	-11.1682
▁listaxe	-11.1683
▁um	-11.1685
▁videos	-11.169
▁ama	-11.1693
▁nacido	-11.1694
▁interven	-11.1697
▁coco	-11.1697
▁tenis	-11.1697
gh	-11.1697
▁estradas	-11.1699
▁mun	-11.1704
▁osea	-11.1704
▁win	-11.1704
▁cemiterio	-11.1708
▁multitude	-11.1708
▁courel	-11.1708
▁extremadamente	-11.1708
▁vilarmaior	-11.1708
teiro	-11.171
xio	-11.1712
vos	-11.1713
dri	-11.1714
▁quebec	-11.1714
▁fauna	-11.1716
▁wall	-11.1717
▁opinion	-11.1723
▁herdeiro	-11.1723
ese	-11.1723
▁caracterizada	-11.173
pla	-11.1732
▁cousa	-11.1744
▁escanos	-11.1745
▁calvo	-11.1747
lim	-11.1747
▁correo	-11.1749
▁cru	-11.1751
▁chao	-11.1751
▁separados	-11.1755
▁sobrino	-11.1757
▁potter	-11.1758
▁inspiracion	-11.1758
▁muxia	-11.1759
▁levado	-11.1759
lor	-11.176
▁conxuntamente	-11.1761
▁prazo	-11.1761
▁vesiculas	-11.1764
ible	-11.1764
▁delgado	-11.1765
▁lanzar	-11.1766
▁laura	-11.1766
ille	-11.1769
▁corredor	-11.1771
▁kin	-11.1771
ies	-11.1775
▁volcanica	-11.1776
▁zas	-11.1776
▁abandonou	-11.1777
pur	-11.1778
▁vidal	-11.1781
▁hay	-11.1786
▁sober	-11.1787
▁leiro	-11.1787
lou	-11.1788
▁arnm	-11.1789
▁publicar	-11.1798
▁moon	-11.1801
▁chamar	-11.1805
▁darwin	-11.1805
▁singular	-11.1806
▁ste	-11.1806
▁nomenclator	-11.1806
▁progresivo	-11.1806
▁chamou	-11.1807
▁ucd	-11.1809
▁frades	-11.1811
ches	-11.1811
pis	-11.1811
▁huesca	-11.1812
este	-11.1817
tero	-11.1819
iga	-11.1822
▁cavidade	-11.1822
▁mellora	-11.1828
▁caracteriza	-11.1828
▁prezo	-11.1828
▁necesidades	-11.183
▁convencional	-11.1831
▁seleccionado	-11.1833
uca	-11.1833
▁roca	-11.1834
▁minoria	-11.1837
▁(000)	-11.1839
▁nomeamentos	-11.1843
od	-11.1846
ity	-11.1851
▁eua	-11.1854
▁representado	-11.1854
▁adquiriu	-11.1856
▁society	-11.1856
▁iguais	-11.1856
▁progreso	-11.1856
▁adestramento	-11.1858
▁demasiado	-11.1859
▁febre	-11.1859
▁kosovo	-11.1862
▁certificado	-11.1863
▁arquivo	-11.1863
ɛ	-11.1866
▁capitulos	-11.1866
▁gold	-11.1867
▁michigan	-11.1871
▁anarquista	-11.1872
▁cuberto	-11.1873
▁academico	-11.1873
▁grafico	-11.1873
▁bebida	-11.1876
▁presentador	-11.1876
▁variar	-11.1876
ane	-11.1877
▁clasificada	-11.1878
▁ecosistemas	-11.1879
olo	-11.1885
▁baseadas	-11.1892
gle	-11.1893
▁cis	-11.1893
▁modern	-11.1894
▁emblema	-11.1897
mbre	-11.1897
▁jar	-11.1902
uma	-11.1903
cada	-11.1906
▁cinematografico	-11.1906
▁motociclismo	-11.1906
▁ingresos	-11.1906
▁0'	-11.1907
▁sino	-11.1909
▁mozos	-11.1912
▁<	-11.1913
▁free	-11.1921
▁mali	-11.1922
▁incluiu	-11.1922
▁semella	-11.1923
▁reloxo	-11.1923
zos	-11.1923
▁linguistico	-11.1923
▁teria	-11.1924
▁atoparse	-11.1927
▁criterios	-11.1928
trans	-11.1928
▁espada	-11.1932
▁salas	-11.1933
ш	-11.194
ega	-11.1945
eri	-11.1949
▁gramatica	-11.1955
▁baikonur	-11.1956
▁malaisia	-11.1956
▁concilio	-11.1956
▁contorno	-11.1956
▁dioxido	-11.1956
▁wilson	-11.1957
▁derivada	-11.1957
gy	-11.1958
▁alice	-11.1961
bla	-11.1961
▁moreno	-11.1961
hor	-11.1961
▁facilitar	-11.1962
▁gordon	-11.1964
η	-11.1968
▁camaras	-11.1972
▁xorde	-11.1973
▁franxa	-11.1974
▁destinado	-11.1977
▁cadrado	-11.1978
▁cana	-11.1983
▁hardcore	-11.1984
▁wood	-11.1985
▁sound	-11.1989
б	-11.1996
▁pago	-11.2004
fon	-11.2005
▁cita	-11.2006
▁herrera	-11.2006
▁responsabel	-11.2006
▁chamanse	-11.2007
▁ros	-11.2007
▁miranda	-11.2007
▁autovia	-11.2008
arte	-11.2008
▁delft	-11.2009
▁exfutbolista	-11.2009
▁indiana	-11.201
▁analises	-11.2011
▁loira	-11.2011
▁experimentos	-11.2014
▁continuo	-11.2014
▁graxos	-11.2021
▁pantalla	-11.2025
▁financeiro	-11.2025
▁responsables	-11.2026
▁freire	-11.2027
▁taxon	-11.2027
▁descendente	-11.203
▁andes	-11.203
▁eva	-11.2033
▁trama	-11.2035
▁rin	-11.204
▁sud	-11.2041
▁campanas	-11.2043
▁aproximada	-11.2052
▁conselleria	-11.2056
▁rodrigo	-11.2057
▁draft	-11.2057
▁poetas	-11.2057
▁platino	-11.2057
▁quedando	-11.2057
▁0°0′00.00′′	-11.2057
▁humorista	-11.2059
gri	-11.206
▁abriu	-11.2061
▁estable	-11.2063
▁great	-11.2063
▁facelo	-11.2064
▁baleiro	-11.2065
▁pronunciacion	-11.2066
▁colorado	-11.2066
▁mus	-11.2069
▁consideracion	-11.2069
▁water	-11.2071
▁mutacions	-11.2072
▁relativa	-11.2074
▁ocorreu	-11.2075
▁distinto	-11.2076
▁bolsa	-11.2078
rita	-11.2078
▁test	-11.2078
▁tira	-11.208
dus	-11.2082
▁adulto	-11.2082
▁aldeas	-11.2082
▁escenas	-11.2084
fen	-11.2086
▁xuizo	-11.2086
я	-11.2091
fila	-11.2092
▁campa	-11.2093
▁relixions	-11.2094
▁arqueas	-11.2095
▁bach	-11.2097
▁master	-11.2099
▁vertical	-11.2103
▁crime	-11.2103
▁color	-11.2106
ston	-11.2106
▁recollida	-11.2107
▁sydney	-11.2107
▁indicar	-11.2107
ay	-11.211
▁institute	-11.2114
▁invertebrados	-11.2116
▁nadal	-11.212
▁convertese	-11.2124
▁belaruso	-11.2124
▁brancos	-11.2125
▁detective	-11.2127
▁autoestrada	-11.2127
▁lor	-11.2128
▁combustible	-11.213
iel	-11.2132
▁profundas	-11.2132
▁antixeno	-11.2135
▁dinamica	-11.2135
▁comp	-11.2142
llas	-11.2143
cum	-11.2148
hy	-11.2149
▁conto	-11.215
▁gui	-11.2151
lly	-11.2157
▁verse	-11.2157
responsabilidade	-11.2158
▁normandia	-11.2159
bes	-11.216
▁cerceda	-11.216
▁orixinan	-11.216
cker	-11.2171
▁loureiro	-11.218
▁asistencia	-11.2183
▁fibras	-11.2187
▁reside	-11.2189
▁bande	-11.2193
metro	-11.2196
▁converter	-11.2196
▁plumas	-11.2196
▁ostenta	-11.2201
▁xeracions	-11.2201
▁manifestacions	-11.2202
▁comunica	-11.2207
▁actuou	-11.221
▁contribuiu	-11.221
▁federico	-11.221
▁oxford	-11.221
quen	-11.221
▁xulio	-11.221
▁exilio	-11.221
▁felipe	-11.221
▁caniza	-11.2211
▁salgado	-11.2211
▁nobreza	-11.2212
▁culleredo	-11.2214
▁julian	-11.2215
▁billy	-11.2217
▁leones	-11.2219
▁alpes	-11.222
▁situan	-11.2222
aki	-11.2225
sson	-11.2226
▁deixa	-11.223
▁deportista	-11.2232
▁modificacion	-11.2233
▁facto	-11.2233
▁habilidade	-11.2233
▁porco	-11.2234
▁copas	-11.2234
▁leve	-11.2234
▁neve	-11.2235
▁lois	-11.2236
▁dirixente	-11.2236
о	-11.2236
▁ue	-11.2236
ted	-11.2238
ele	-11.2239
▁buque	-11.224
izou	-11.2245
▁marc	-11.2248
▁peche	-11.2254
▁dallas	-11.226
▁simboliza	-11.226
▁intestino	-11.2261
▁wilhelm	-11.2261
▁tabeiros	-11.2261
▁eurasia	-11.2261
▁prusia	-11.2261
▁bomba	-11.2263
▁mondariz	-11.2265
▁exploracion	-11.2265
▁power	-11.2268
lt	-11.2268
▁sofia	-11.2269
▁destacando	-11.2271
▁guarda	-11.2272
▁conter	-11.2272
▁claramente	-11.2273
alo	-11.2274
▁cantautor	-11.2278
▁pib	-11.228
▁utilizadas	-11.2281
▁ilustrador	-11.2288
▁cargos	-11.2288
rada	-11.229
▁nordico	-11.229
▁anglo	-11.2291
▁vigor	-11.2291
vigo	-11.2294
exa	-11.2295
▁fibra	-11.2295
▁vaca	-11.2296
dge	-11.23
mat	-11.2301
rk	-11.2307
jar	-11.2308
▁rias	-11.231
▁crenzas	-11.2312
ɔ	-11.2313
▁melbourne	-11.2313
▁open	-11.2314
▁poetica	-11.2316
▁defende	-11.2316
▁recibiron	-11.2318
▁seco	-11.232
▁precursor	-11.2321
oeste	-11.2323
▁chubu	-11.2325
▁pilar	-11.2326
▁acabar	-11.2328
edi	-11.2329
▁publicaron	-11.2329
▁carre	-11.233
zen	-11.233
▁villar	-11.2332
▁seccions	-11.2336
▁persoais	-11.2336
▁lixeiro	-11.2337
▁soberano	-11.2337
▁obten	-11.2338
▁maritima	-11.234
▁tru	-11.2344
▁venus	-11.235
▁funcionan	-11.2351
▁engloba	-11.2354
nai	-11.2355
▁continentes	-11.2355
▁io	-11.2355
▁peor	-11.2359
م	-11.2361
▁france	-11.2361
mita	-11.2363
▁glasgow	-11.2365
▁escolta	-11.2365
▁abertura	-11.2365
▁filgueira	-11.2365
▁rodaxe	-11.2367
▁cla	-11.2368
▁satellite	-11.2369
▁probable	-11.2369
▁levada	-11.237
teira	-11.2373
▁minima	-11.2378
rc	-11.2379
▁conversion	-11.238
▁rai	-11.2384
▁verdade	-11.2386
▁allen	-11.2386
sp	-11.2386
hon	-11.2388
▁relevo	-11.2389
dela	-11.2396
▁celtas	-11.2397
istica	-11.2399
▁patrons	-11.24
▁reservas	-11.2403
▁josep	-11.2408
ilo	-11.2409
▁outorgado	-11.2411
▁ficticia	-11.2417
▁cumprir	-11.2417
▁catedratico	-11.2418
▁donald	-11.2418
▁trio	-11.2419
▁revistas	-11.2419
▁ribadumia	-11.2419
▁antena	-11.2421
▁icao	-11.2422
▁xenerico	-11.2422
▁situacions	-11.2424
tive	-11.2425
▁cinto	-11.2429
▁good	-11.2431
▁necesaria	-11.2438
▁liderou	-11.2438
▁determinadas	-11.244
▁mito	-11.2442
▁mao	-11.2443
rme	-11.2444
▁modificacions	-11.2447
▁facia	-11.2447
▁aran	-11.2448
ة	-11.2455
nina	-11.2456
▁hen	-11.2458
rich	-11.2461
▁primo	-11.2462
ami	-11.2463
▁vea	-11.247
▁diagnostico	-11.247
▁savinao	-11.247
▁singapur	-11.247
▁xadrez	-11.247
▁colonizacion	-11.2471
▁integracion	-11.2471
▁apple	-11.2472
▁flandres	-11.2473
▁vulgarmente	-11.2473
▁barcia	-11.2473
▁miller	-11.2481
▁grana	-11.2492
▁talo	-11.2496
▁externo	-11.2496
▁verdadeiro	-11.2497
▁procedemento	-11.2499
nato	-11.2503
▁decisions	-11.2504
▁deberia	-11.2504
ale	-11.2505
▁quin	-11.2505
▁rivas	-11.2507
gawa	-11.2509
▁*	-11.2511
▁valles	-11.2511
▁construtor	-11.2517
▁horizontal	-11.2518
▁orleans	-11.2523
▁reflexion	-11.2523
▁agustin	-11.2523
▁lousame	-11.2524
▁giovanni	-11.2524
lingua	-11.2525
▁youth	-11.2526
dh	-11.2526
▁ciudad	-11.2528
▁dirixir	-11.2529
▁nigran	-11.253
▁conxuntos	-11.2532
pt	-11.2537
▁noise	-11.2537
kawa	-11.2538
mio	-11.2544
▁profunda	-11.2546
▁kai	-11.2547
rne	-11.2548
▁gue	-11.255
▁trastorno	-11.255
▁axina	-11.255
▁realizouse	-11.2551
bor	-11.2553
▁rioxa	-11.2554
cios	-11.2565
▁galesa	-11.2567
▁cento	-11.2568
▁fracaso	-11.257
▁orange	-11.2572
lde	-11.2573
▁designado	-11.2574
age	-11.2574
▁laterais	-11.2576
▁msnm	-11.2576
▁lancara	-11.2576
▁percepcion	-11.2576
▁lobios	-11.2576
▁london	-11.2577
▁filial	-11.2577
▁independentista	-11.2578
▁baseball	-11.2578
▁zoo	-11.2579
▁lanza	-11.2582
lf	-11.2587
λ	-11.2588
▁directores	-11.2599
▁neira	-11.26
▁comerciante	-11.2604
▁pendente	-11.2604
▁dourada	-11.2604
mol	-11.2605
▁creados	-11.2605
▁saba	-11.2607
anti	-11.261
rit	-11.2613
▁lit	-11.2613
▁maza	-11.2617
▁percorre	-11.262
▁referencias	-11.2621
eto	-11.2621
tana	-11.2625
elle	-11.2626
▁viola	-11.2629
▁00°00′0.00′′	-11.263
▁bangladesh	-11.263
▁puerto	-11.263
▁vladimir	-11.263
▁patriarca	-11.2631
▁logrando	-11.2631
▁rosario	-11.2633
▁urano	-11.2633
▁halo	-11.2633
▁jason	-11.2635
▁marron	-11.2635
▁compostas	-11.2635
▁determina	-11.2637
▁frei	-11.2638
▁penas	-11.2642
▁field	-11.2647
▁optica	-11.2647
▁german	-11.2648
▁rodano	-11.2648
▁farmacos	-11.2652
▁terapia	-11.2653
pus	-11.2656
▁montanosa	-11.2658
▁esforzo	-11.2659
▁mostran	-11.2659
▁abra	-11.2659
▁tirador	-11.266
▁rosalia	-11.2664
eg	-11.2667
▁sim	-11.2671
▁galaxias	-11.2673
▁carecen	-11.2676
ori	-11.2677
▁conservador	-11.2682
rado	-11.2683
pivote	-11.2683
▁dezaseis	-11.2684
▁respiracion	-11.2684
▁lirica	-11.2685
▁canteira	-11.2685
▁lang	-11.2687
▁alguen	-11.2687
▁contribue	-11.2689
θ	-11.2693
▁lost	-11.2697
▁ty	-11.2697
▁gun	-11.2698
▁tronco	-11.2698
kai	-11.2701
▁organizar	-11.2701
▁animada	-11.2702
▁suxire	-11.2703
▁moleculares	-11.2706
grafia	-11.271
▁sho	-11.2711
▁cultivos	-11.272
▁iniciouse	-11.2721
▁democrata	-11.2721
▁jacob	-11.2721
ego	-11.2722
▁pacientes	-11.2724
▁dobres	-11.2725
gor	-11.2727
▁celebraron	-11.2729
mbro	-11.2732
▁intensa	-11.2733
▁indo	-11.2733
vec	-11.2737
▁tau	-11.2737
▁google	-11.2737
▁navegacion	-11.2737
▁transmitir	-11.2737
▁gravidade	-11.2737
▁mocidade	-11.2738
▁cairo	-11.274
▁bergondo	-11.2743
▁confluencia	-11.2744
▁esencialmente	-11.2745
▁oklahoma	-11.2746
▁trens	-11.2754
▁chaman	-11.2756
lam	-11.2757
ی	-11.2765
▁coles	-11.2765
▁devandita	-11.2768
▁sanguineo	-11.2768
▁profundo	-11.2772
ib	-11.2773
▁romanica	-11.2773
▁denominadas	-11.2774
▁estudosos	-11.2785
▁dro	-11.2786
▁lamina	-11.2789
▁aeroportos	-11.2791
▁demostrou	-11.2792
▁xunqueira	-11.2792
▁valadouro	-11.2792
▁reeditado	-11.2792
_{0}	-11.2792
▁ermida	-11.2793
▁lucia	-11.2793
▁sinalizacion	-11.2793
▁sporting	-11.2793
▁integran	-11.2794
▁karate	-11.2795
▁ventos	-11.2798
▁river	-11.2799
▁fica	-11.28
bur	-11.2802
▁gana	-11.2803
▁conforme	-11.2803
▁impresion	-11.2804
gueiro	-11.2809
▁produciron	-11.2809
▁asinado	-11.281
hara	-11.2811
▁pio	-11.2814
▁linux	-11.2814
▁entender	-11.2816
ule	-11.2816
▁ny	-11.2817
ball	-11.2817
▁levaba	-11.2818
▁rota	-11.2819
▁cifra	-11.2821
▁rexistros	-11.2821
kon	-11.2823
▁milenio	-11.2823
▁teorico	-11.2824
▁resultante	-11.2826
▁femia	-11.2826
▁despraza	-11.2827
▁basico	-11.2829
▁matar	-11.2832
▁bacteriana	-11.2834
tadas	-11.2835
▁esteiro	-11.2838
▁evidencia	-11.2839
▁teorica	-11.2842
▁administrativas	-11.2843
▁groenlandia	-11.2846
▁madagascar	-11.2846
▁nutrientes	-11.2846
▁eliminacion	-11.2847
▁gallega	-11.2847
▁monica	-11.2851
▁evidencias	-11.2853
▁-0.00000000	-11.2857
▁moana	-11.286
▁luna	-11.2862
rm	-11.2863
▁falase	-11.2864
▁facerse	-11.2865
tido	-11.2872
▁integrantes	-11.2877
▁michel	-11.2878
])	-11.2878
▁plastico	-11.2878
▁magnetico	-11.2881
▁concentra	-11.2883
rosa	-11.2884
▁vale	-11.2887
▁chamarse	-11.2888
▁xuiz	-11.2891
banse	-11.2892
▁dolar	-11.2901
▁mantendo	-11.2901
▁compuxo	-11.2901
▁heracles	-11.2901
▁vixesim	-11.2901
▁cebreiro	-11.2901
▁precision	-11.2901
segundo	-11.2903
▁marfil	-11.2904
▁restantes	-11.2905
▁protagonistas	-11.2906
▁blood	-11.2907
▁corresponden	-11.2916
▁emmy	-11.2918
▁samos	-11.292
▁centimetros	-11.2921
▁met	-11.2922
xin	-11.2931
oni	-11.2931
▁lexislatura	-11.2934
▁wave	-11.2935
ل	-11.2935
mero	-11.2943
▁xigantes	-11.2943
pul	-11.2945
▁navia	-11.2946
▁hiper	-11.2948
all	-11.2949
▁insular	-11.2951
▁observacions	-11.2953
uros	-11.2953
▁carino	-11.2954
▁raio	-11.2955
δ	-11.2955
▁campioa	-11.2957
▁habsburgo	-11.2957
▁complemento	-11.2957
▁vogal	-11.2957
▁neuronas	-11.2958
▁corenta	-11.2959
▁phoenix	-11.296
voces	-11.296
▁substituindo	-11.2961
▁normais	-11.2961
ان	-11.2962
▁controla	-11.2962
▁xel	-11.2963
▁sucedendo	-11.2963
▁regresou	-11.2964
▁khan	-11.2966
ς	-11.2968
▁pertenceu	-11.2968
▁parentes	-11.2972
ett	-11.2974
▁habitado	-11.2977
か	-11.2977
▁tm	-11.2978
▁extenso	-11.2978
▁rod	-11.2979
eva	-11.2981
ain	-11.2985
▁morrer	-11.2986
▁domestica	-11.2987
▁momentos	-11.2987
▁puro	-11.2989
▁enteiro	-11.2989
▁museos	-11.2989
▁minor	-11.299
sat	-11.299
▁turistica	-11.2991
llon	-11.2992
▁cra	-11.3002
▁completar	-11.3002
▁nestes	-11.3006
▁caras	-11.3012
inter	-11.3012
▁athletic	-11.3012
▁charlotte	-11.3012
▁toneladas	-11.3012
▁vontade	-11.3012
▁stewart	-11.3012
▁bibliografia	-11.3012
▁santiso	-11.3013
...)	-11.3015
▁elaborado	-11.3018
▁machine	-11.3018
▁islamica	-11.3021
fico	-11.3022
doiro	-11.3024
▁mora	-11.3025
▁rotacion	-11.3026
▁familiares	-11.3031
▁uruguaio	-11.3032
▁bowl	-11.3036
▁inspirada	-11.3036
▁ocupado	-11.3037
icus	-11.3043
▁pr	-11.3046
▁salvaxe	-11.3048
▁tr	-11.3048
▁raul	-11.3049
▁exipcio	-11.3049
▁xenica	-11.3051
▁viuse	-11.3051
▁alexandria	-11.3054
▁vic	-11.3055
-0000	-11.3056
▁hol	-11.3058
▁citado	-11.3058
▁verbo	-11.3058
▁secretaria	-11.3061
▁golden	-11.3061
▁repertorio	-11.3068
▁cervexa	-11.3068
▁letonia	-11.307
xes	-11.3071
▁oposto	-11.3072
gus	-11.3076
▁pie	-11.3086
▁inscricions	-11.3088
▁epocas	-11.3089
▁dio	-11.3089
▁comezan	-11.3095
▁mara	-11.31
▁inscricion	-11.3104
▁celeste	-11.3104
▁vide	-11.3104
▁filamentos	-11.3106
ole	-11.3108
▁cura	-11.311
▁emisora	-11.3111
▁cee	-11.3116
sus	-11.3119
enta	-11.3122
dr	-11.3123
▁capsula	-11.3124
▁almeria	-11.3124
▁houston	-11.3124
▁compra	-11.3126
▁psoe	-11.313
▁grunge	-11.313
▁goya	-11.3132
idi	-11.3134
▁western	-11.3139
ret	-11.3141
▁adoitase	-11.3146
▁penedo	-11.315
▁00.00000000	-11.3151
▁00.00	-11.3152
cl	-11.3153
▁ion	-11.3154
▁otto	-11.3155
▁cel	-11.3157
▁columnas	-11.3158
▁dead	-11.3161
▁desprazamento	-11.3162
▁electronicos	-11.3165
▁debuxo	-11.3165
▁portugueses	-11.3166
▁militante	-11.3166
▁penal	-11.3166
▁brazos	-11.3167
▁dinosauros	-11.3167
▁transcorre	-11.3175
pero	-11.3176
▁hills	-11.3176
▁lexislativo	-11.3181
▁pearl	-11.3181
▁indianapolis	-11.3181
▁jordan	-11.3181
▁alcohol	-11.3181
▁laranxa	-11.3184
▁gabinete	-11.3185
▁tsar	-11.319
▁saa	-11.319
▁aprobada	-11.319
ον	-11.3192
▁enviou	-11.3194
▁00,000	-11.3195
iva	-11.3196
▁acceder	-11.3198
д	-11.3198
mbra	-11.32
▁senegal	-11.3201
▁realizase	-11.3201
▁pul	-11.3204
ip	-11.3204
▁wu	-11.3204
ð	-11.3204
gin	-11.322
▁estableceuse	-11.3221
▁dada	-11.3222
▁comer	-11.3222
▁pis	-11.3228
▁cp	-11.3229
mm	-11.3232
▁alumnos	-11.3232
▁prestixio	-11.3233
▁producidas	-11.3234
▁fuji	-11.3237
▁supervivencia	-11.3237
▁jeff	-11.3239
▁exeo	-11.324
pha	-11.324
▁meseta	-11.3243
inger	-11.3244
mbi	-11.3252
▁franca	-11.3253
▁braga	-11.3253
▁face	-11.3255
xena	-11.3259
▁tratados	-11.3259
▁res	-11.3262
▁last	-11.3264
▁pica	-11.3267
▁cama	-11.327
▁buques	-11.327
▁reconecidos	-11.3273
▁identifica	-11.3273
tom	-11.3275
▁mutacion	-11.328
lot	-11.3285
▁mencionado	-11.3285
▁shu	-11.3285
▁coto	-11.3286
▁duran	-11.3288
▁signos	-11.329
▁chea	-11.329
▁negros	-11.3292
▁amsterdam	-11.3295
▁edimburgo	-11.3295
▁hercegovina	-11.3295
▁medievais	-11.3295
▁uganda	-11.3295
▁vaticano	-11.3295
▁xuridico	-11.3295
▁dumbria	-11.3295
▁referendo	-11.3295
▁ilegal	-11.3296
▁maside	-11.3297
▁descarga	-11.3298
▁ballet	-11.3298
▁first	-11.3301
▁plena	-11.3303
▁nomeados	-11.3306
▁interpretado	-11.3308
▁romantico	-11.3309
gla	-11.3318
cil	-11.3318
itu	-11.332
▁incorpora	-11.3322
▁fillas	-11.3323
▁ud	-11.3323
▁cambia	-11.3324
heim	-11.3324
tismo	-11.3327
ende	-11.333
▁xeoloxico	-11.3335
▁protexida	-11.3335
▁ecuacion	-11.3335
▁vendido	-11.3335
▁semellanza	-11.3335
num	-11.3337
▁jay	-11.334
▁vocal	-11.3343
▁|	-11.3344
▁с	-11.3344
▁cervo	-11.3345
▁usadas	-11.3348
▁reflicte	-11.335
00.	-11.3351
▁frankfurt	-11.3352
▁lawrence	-11.3352
▁nebulosa	-11.3352
▁fraccion	-11.3352
▁anuais	-11.3352
▁mental	-11.3354
ales	-11.3355
▁necesariamente	-11.3357
▁sony	-11.3359
tea	-11.3359
▁galaico	-11.3361
▁casca	-11.3363
▁hy	-11.3363
▁galia	-11.3366
▁cans	-11.3366
▁awards	-11.3366
▁xera	-11.337
▁musulma	-11.3371
▁araba	-11.3371
▁necesita	-11.3371
▁desenvolvidos	-11.3379
oide	-11.3381
rius	-11.3383
ptera	-11.3385
▁mr	-11.3385
▁liderada	-11.3388
▁arturo	-11.3391
▁hispano	-11.3391
▁graxo	-11.3394
▁games	-11.3394
▁ferreiros	-11.3399
gro	-11.3401
tras	-11.3403
▁cobra	-11.3408
pina	-11.3408
▁casaquistan	-11.341
▁colaborou	-11.341
▁morfoloxia	-11.341
▁tanzania	-11.341
deiro	-11.341
▁comico	-11.3411
▁continuado	-11.3411
lat	-11.3416
▁reconecidas	-11.342
▁aprobado	-11.342
▁couso	-11.342
▁pia	-11.3424
▁exitosa	-11.3424
▁vendidos	-11.3428
▁permanecen	-11.3431
▁paramo	-11.3431
▁vivas	-11.3432
▁tempera	-11.3432
pai	-11.3434
▁foral	-11.3438
cula	-11.344
▁vermellas	-11.3444
▁clasifica	-11.3445
▁emitir	-11.3445
▁sosten	-11.3448
reino	-11.3448
▁companeiros	-11.3452
▁00'	-11.3452
▁proposto	-11.3453
vir	-11.3453
▁sociedad	-11.3453
▁acuaticos	-11.3456
▁oleo	-11.3457
▁ultra	-11.3461
eza	-11.3462
▁colombiana	-11.3463
oro	-11.3465
▁levando	-11.3467
▁monterroso	-11.3468
▁subsidiaria	-11.3468
▁anatomia	-11.3468
▁reconstrucion	-11.3468
▁lea	-11.3469
▁capaces	-11.3469
▁parasitos	-11.3472
▁producions	-11.3475
▁minnesota	-11.3476
▁oxidacion	-11.3476
▁caracterizado	-11.3479
▁cano	-11.348
▁teleosteos	-11.3481
▁0000-0000.	-11.3482
▁pensase	-11.3482
▁representando	-11.3483
xido	-11.3484
▁andrea	-11.3493
nc	-11.3494
teo	-11.3495
▁empregadas	-11.3495
nne	-11.3499
▁presa	-11.3499
lado	-11.35
▁dra	-11.3501
▁utilizou	-11.3503
▁socialistas	-11.3506
rida	-11.3509
iki	-11.351
▁fervenza	-11.3511
▁illote	-11.3511
arabe	-11.3512
▁clark	-11.3513
▁preciso	-11.3513
▁fungo	-11.3514
beira	-11.3517
shire	-11.3519
ц	-11.3519
▁segura	-11.3522
▁aparente	-11.3522
▁civilizacions	-11.3523
▁equivale	-11.3525
▁cantabrico	-11.3526
▁inclusion	-11.3526
▁bisbarra	-11.3526
▁faleceu	-11.3527
▁enfrontou	-11.3527
▁pedrafita	-11.3527
▁degradacion	-11.3527
▁fro	-11.3528
eria	-11.353
х	-11.353
▁mie	-11.3531
▁henri	-11.3532
lito	-11.3535
▁aplicar	-11.3536
▁perde	-11.3536
▁confusion	-11.3537
pol	-11.3538
ob	-11.3538
▁ontario	-11.3538
▁quedaron	-11.3542
▁lim	-11.3543
▁achase	-11.3551
▁bando	-11.3555
▁acaba	-11.3557
▁fran	-11.3558
▁atletas	-11.356
ν	-11.3564
▁potencias	-11.3564
▁negativa	-11.3566
▁coros	-11.357
▁incrementa	-11.357
▁investimento	-11.3571
▁podio	-11.3573
▁substituida	-11.3574
▁autonomo	-11.3575
▁helicoptero	-11.3576
▁lunar	-11.3576
▁ocupando	-11.3577
▁γ	-11.3578
▁palm	-11.3578
ali	-11.3579
د	-11.358
ов	-11.3582
▁alxebra	-11.3585
▁jonathan	-11.3585
▁lexislacion	-11.3585
▁cretaceo	-11.3585
▁negreira	-11.3585
▁sensacion	-11.3586
▁pobreza	-11.3586
▁eliminar	-11.3588
▁atlantica	-11.3588
▁cuenca	-11.359
guer	-11.3591
▁labrada	-11.3591
▁lac	-11.3591
itz	-11.3592
▁crema	-11.3593
▁newton	-11.3594
pra	-11.3595
ota	-11.3595
▁marti	-11.36
▁poner	-11.3602
▁faso	-11.3605
▁negras	-11.3607
▁particulares	-11.3612
▁integral	-11.3622
▁raf	-11.3625
cola	-11.3626
▁ira	-11.3626
▁escravos	-11.3626
ł	-11.3626
▁medicos	-11.3627
▁heart	-11.3627
rela	-11.3629
▁ple	-11.3629
▁financeira	-11.363
▁negocio	-11.3631
▁visita	-11.3633
▁pato	-11.3637
racion	-11.3637
sub	-11.3638
mbe	-11.3639
▁anfibios	-11.3643
▁dixestivo	-11.3644
▁dixitais	-11.3644
▁ostrobotnia	-11.3644
▁almacenamento	-11.3645
ович	-11.3645
▁russell	-11.3645
▁anderson	-11.3645
▁dominicana	-11.3646
▁habitada	-11.3653
▁ultramar	-11.3654
ef	-11.3655
fr	-11.3656
▁termica	-11.3659
▁agricolas	-11.3659
▁xian	-11.3661
dura	-11.3665
▁gene	-11.3668
▁bioloxicas	-11.3669
▁phil	-11.3672
ifera	-11.3672
▁construiu	-11.3672
▁depositos	-11.3672
▁integra	-11.3676
▁feridas	-11.368
-000,	-11.368
thy	-11.3683
▁gravador	-11.3684
▁tin	-11.3691
▁detectar	-11.3691
▁distribuida	-11.3691
▁explora	-11.3692
▁escasa	-11.3692
▁representativo	-11.3696
▁castello	-11.3699
▁nord	-11.37
▁emilia	-11.3702
▁embrion	-11.3703
▁suprema	-11.3703
▁benjamin	-11.3704
▁budapest	-11.3704
▁xibraltar	-11.3704
▁redondo	-11.3704
▁titulada	-11.3707
▁normativa	-11.3707
▁estremadura	-11.3708
▁cli	-11.3709
▁oblast	-11.3712
aca	-11.3713
▁fun	-11.3714
pal	-11.3715
▁xiao	-11.3721
▁gary	-11.3723
▁tendas	-11.3723
{	-11.3727
▁ligado	-11.373
▁turin	-11.3731
fica	-11.3733
▁casares	-11.3733
uer	-11.3735
▁producindo	-11.3741
ries	-11.3742
▁douro	-11.3743
ל	-11.3746
arse	-11.3747
▁fol	-11.3749
▁capitulo	-11.3752
▁palmeira	-11.3752
▁paxaro	-11.3752
▁carro	-11.3754
▁especialidade	-11.3757
▁presta	-11.3758
▁irmas	-11.3758
▁head	-11.3759
▁larvas	-11.3763
▁habituais	-11.3764
▁kennedy	-11.3764
▁manhattan	-11.3764
▁derrotou	-11.3764
▁burkina	-11.3764
▁stanley	-11.3764
▁saudita	-11.3765
▁dificultades	-11.3766
dp	-11.3766
▁vidro	-11.3767
▁podendo	-11.3767
▁adicion	-11.3768
▁ponteceso	-11.3769
tch	-11.3769
▁testamento	-11.377
▁corda	-11.377
anteriormente	-11.3771
▁confundirse	-11.3771
▁dramatico	-11.3772
▁artisticamente	-11.3773
▁exitoso	-11.3779
▁unese	-11.3781
▁ocupada	-11.3781
org	-11.3782
▁here	-11.3786
ill	-11.3786
▁adolfo	-11.3788
mato	-11.3788
▁patoxenos	-11.3791
▁robin	-11.3791
▁cunca	-11.3792
▁notas	-11.3796
reiro	-11.3799
▁fallo	-11.3801
ан	-11.3802
ame	-11.3803
tribu	-11.3808
▁eliminatorias	-11.3812
▁telescopio	-11.3812
▁pioneira	-11.3812
▁extinto	-11.3812
izados	-11.3815
▁neu	-11.3815
▁operas	-11.3816
▁competencias	-11.3817
▁describiu	-11.3818
sy	-11.382
ра	-11.3821
deira	-11.3823
космо	-11.3824
▁cibrao	-11.3824
▁carballeda	-11.3824
▁hernandez	-11.3824
▁rampla	-11.3825
▁rendemento	-11.3825
▁cupula	-11.3825
qu	-11.3826
▁aventura	-11.3826
rona	-11.3826
▁formaban	-11.3827
▁cranio	-11.3828
▁recta	-11.3828
▁exactamente	-11.3828
▁hamburgo	-11.383
▁ligada	-11.383
▁compromiso	-11.3834
▁presentada	-11.3835
ntin	-11.3836
▁accidentes	-11.3838
▁dur	-11.3842
▁turistas	-11.3843
▁esco	-11.3845
▁abandonar	-11.3845
▁comprender	-11.3846
grad	-11.3847
▁basicos	-11.385
▁bernard	-11.3852
▁award	-11.3857
▁estabilidade	-11.3858
ude	-11.386
▁ip	-11.386
▁marea	-11.3865
▁wi	-11.3868
▁contemporaneos	-11.3868
▁verso	-11.387
▁xeorxiano	-11.3871
▁templos	-11.3872
▁inimigos	-11.3872
oli	-11.3872
▁reconecer	-11.3874
▁bautizado	-11.3875
▁resolver	-11.3875
▁permitindo	-11.3876
▁-000.000	-11.3878
▁move	-11.3878
▁reinou	-11.3878
▁afectan	-11.3879
▁fle	-11.3879
▁marcada	-11.3881
▁dave	-11.3885
▁gastronomia	-11.3885
▁boboras	-11.3885
▁eurocopa	-11.3885
▁oitenta	-11.3885
rta	-11.3885
▁fermentacion	-11.3885
▁cardeal	-11.3886
▁philip	-11.3886
▁troia	-11.3887
▁mini	-11.3888
▁ritmos	-11.3889
▁bico	-11.3891
▁patera	-11.3893
▁isa	-11.3893
▁precisamente	-11.3893
▁dubida	-11.3894
▁vinas	-11.3895
▁traballando	-11.3901
▁consola	-11.3902
war	-11.3903
▁asentos	-11.3904
▁bai	-11.3908
lista	-11.3911
▁gp	-11.3914
▁metropolitano	-11.3916
0),	-11.3916
▁xuntas	-11.3917
hn	-11.3918
▁lion	-11.3922
mico	-11.3923
seculo	-11.3924
▁valoracions	-11.3925
tano	-11.3927
py	-11.3929
spe	-11.393
▁renda	-11.3931
▁reducida	-11.3937
▁hop	-11.394
▁ska	-11.394
ف	-11.3946
▁tripulantes	-11.3946
▁visuais	-11.3946
▁cundinamarca	-11.3946
enberg	-11.3947
▁arra	-11.3947
▁garage	-11.3947
▁arquitectos	-11.3947
▁loitar	-11.3949
▁esporas	-11.3949
rda	-11.3951
ρα	-11.3953
▁vivendas	-11.3954
-0-	-11.3954
oideos	-11.3955
▁gamma	-11.3957
▁mortal	-11.3957
▁gro	-11.3958
▁len	-11.3961
▁parga	-11.3964
▁carme	-11.3968
▁xeograficas	-11.3968
izadas	-11.3971
▁lin	-11.3973
▁temperadas	-11.3975
▁к	-11.3981
gun	-11.3986
▁operaba	-11.3991
▁cure	-11.3991
nik	-11.3993
▁atopado	-11.3995
▁perderon	-11.3996
elli	-11.3997
▁ourol	-11.3997
▁european	-11.3997
▁dicionario	-11.3997
▁misterio	-11.3999
▁etnia	-11.3999
▁mantivose	-11.4001
▁foro	-11.4002
▁engadir	-11.4003
lock	-11.4003
▁alca	-11.4006
▁renacentista	-11.4007
▁university	-11.4007
▁occitano	-11.4007
▁aterraxe	-11.4007
▁antillas	-11.4008
▁tardio	-11.4008
▁joao	-11.4009
▁asentamentos	-11.4009
bai	-11.4009
▁marcial	-11.401
▁neptuno	-11.4011
ulo	-11.4011
▁raramente	-11.4012
▁violacion	-11.4015
▁desexo	-11.4017
▁denominar	-11.4018
▁arizona	-11.4027
ans	-11.4028
▁disputado	-11.403
▁noso	-11.403
▁formacions	-11.404
ه	-11.4041
chin	-11.4042
▁construidos	-11.4043
▁senra	-11.4043
▁romance	-11.4044
▁atopou	-11.4045
tando	-11.4046
▁pita	-11.4047
▁observar	-11.4047
gur	-11.4048
igo	-11.405
▁agro	-11.4052
iso	-11.4052
mata	-11.4053
▁wars	-11.4055
▁seixo	-11.4056
▁experimento	-11.4056
▁descubrimentos	-11.4057
time	-11.4059
▁exercicio	-11.406
▁interiores	-11.4062
▁surafricano	-11.4063
▁definitiva	-11.4064
xos	-11.4065
▁caro	-11.4068
conecido	-11.4068
▁farmaceutico	-11.4069
▁giuseppe	-11.4069
▁pandemia	-11.4069
▁voleibol	-11.4069
▁network	-11.4069
▁abraham	-11.4069
▁(0000,	-11.407
lise	-11.407
▁conduta	-11.407
▁vilaboa	-11.4071
ive	-11.4072
ui	-11.4072
▁bouza	-11.4073
ngo	-11.4074
▁funcionar	-11.4075
fort	-11.4076
incluindo	-11.4077
sum	-11.4078
mc	-11.408
▁duro	-11.4082
▁logros	-11.4082
▁guiana	-11.4084
▁cava	-11.4085
▁apo	-11.4086
clara	-11.4089
tron	-11.409
▁austriaca	-11.4094
ridos	-11.4095
▁cuns	-11.4098
▁ciclos	-11.4099
▁ensaios	-11.4105
▁firma	-11.4107
▁stefan	-11.4107
ax	-11.4117
▁acerca	-11.4121
▁glandula	-11.4123
▁arquitectonico	-11.4124
▁reducido	-11.4125
▁corporacion	-11.4125
▁sufrir	-11.4128
▁adhesion	-11.4131
▁poseidon	-11.4131
▁entretemento	-11.4131
▁protesta	-11.4132
leste	-11.4133
cara	-11.4134
▁abadia	-11.4134
▁nixer	-11.4135
▁desaparecido	-11.4136
▁tomino	-11.4136
▁contraccion	-11.4139
▁lendario	-11.414
▁artropodos	-11.4141
▁coincide	-11.4145
rim	-11.4145
▁rara	-11.4145
mit	-11.415
doras	-11.4151
з	-11.4151
▁barca	-11.4151
▁guitarras	-11.4155
out	-11.4155
▁tracto	-11.4157
wer	-11.4158
▁kon	-11.4159
▁burgo	-11.4161
spi	-11.4162
▁procedementos	-11.4163
▁paleo	-11.4164
▁indi	-11.4164
ago	-11.4166
▁gravar	-11.4168
▁avo	-11.4169
▁valde	-11.4169
▁notables	-11.417
▁vender	-11.417
▁expresions	-11.4172
▁proporcionar	-11.4173
▁costeiras	-11.4174
▁ren	-11.4176
tier	-11.4177
▁vis	-11.4177
gres	-11.4182
▁antoni	-11.4183
mera	-11.4184
▁austral	-11.4185
▁esloveno	-11.4186
▁predecesor	-11.4188
▁abellas	-11.419
▁proton	-11.4191
▁formadas	-11.4192
▁eslovaco	-11.4193
▁xofre	-11.4194
▁procesamento	-11.4194
▁legais	-11.4196
▁corporal	-11.4197
▁ebro	-11.4197
▁lousada	-11.4198
▁cofundador	-11.4198
▁cruzada	-11.4199
▁absorcion	-11.42
ence	-11.42
oma	-11.4201
▁albergar	-11.4202
▁qua	-11.4205
▁denominacions	-11.4206
▁pleno	-11.4208
▁groso	-11.4217
▁caer	-11.4218
ring	-11.4219
▁sobrevivir	-11.422
▁productions	-11.4221
▁circuitos	-11.4221
nimo	-11.4221
vie	-11.4223
▁relata	-11.4225
▁00000	-11.4234
▁000°	-11.4235
ب	-11.4237
▁fonda	-11.4239
rg	-11.4241
▁cosme	-11.4243
ora	-11.4243
tais	-11.4248
▁xuridica	-11.425
▁marcado	-11.4251
illas	-11.4251
▁froita	-11.4251
▁luxo	-11.4255
▁disputar	-11.4255
▁absoluto	-11.4256
▁bautista	-11.4256
▁helsinqui	-11.4256
▁previsto	-11.4256
▁villanueva	-11.4256
▁enxeneria	-11.4256
▁enriba	-11.4257
▁marciais	-11.4259
▁inflamacion	-11.4259
▁tam	-11.4259
▁libia	-11.4259
tza	-11.426
▁neerlandesa	-11.4261
▁sacra	-11.4261
▁pousa	-11.4262
▁town	-11.4264
▁cable	-11.4268
▁xer	-11.4268
ume	-11.4269
▁inca	-11.4269
virus	-11.4269
▁federation	-11.427
aro	-11.4273
▁gregorio	-11.4274
▁ref	-11.4278
table	-11.4278
▁bat	-11.4287
▁ker	-11.4292
▁cent	-11.4292
▁desenos	-11.4293
ר	-11.4293
▁romanas	-11.4295
▁oliver	-11.4298
gli	-11.43
▁has	-11.4301
|	-11.4302
sor	-11.4308
▁etiqueta	-11.4309
▁matthew	-11.4314
lico	-11.4314
▁contribucion	-11.4314
▁fel	-11.4315
▁gale	-11.4316
▁brava	-11.4317
▁desconecida	-11.4319
μα	-11.4319
▁exipcia	-11.432
▁explorer	-11.432
▁intenso	-11.432
▁emerxencia	-11.432
▁publicidade	-11.432
▁mencion	-11.432
aya	-11.4321
▁causado	-11.4321
▁asteroide	-11.4321
▁segovia	-11.4324
▁monza	-11.4326
0+	-11.4326
▁wikipedia	-11.4326
▁xove	-11.4326
▁pascua	-11.4326
▁oferta	-11.4327
χ	-11.4329
▁orientada	-11.4331
}}}	-11.4333
parte	-11.4333
▁conciencia	-11.4335
llan	-11.4335
▁nervio	-11.434
dai	-11.4341
▁aba	-11.4342
eb	-11.4344
▁defender	-11.4345
soma	-11.4345
▁fisicos	-11.4352
▁globos	-11.4358
▁entanto	-11.4362
ares	-11.4362
▁carece	-11.4369
▁conservan	-11.4372
▁ganado	-11.4374
▁facil	-11.4376
▁extracelular	-11.4378
▁interprete	-11.4378
▁xornada	-11.4379
▁prepara	-11.4381
▁requiren	-11.4381
▁jimenez	-11.4383
▁instrumental	-11.4384
vina	-11.4384
▁estevez	-11.4385
▁humidade	-11.4386
▁positiva	-11.4386
▁[ˈ	-11.4388
▁mestres	-11.4391
▁lie	-11.4391
▁presentouse	-11.4393
>	-11.4393
▁significados	-11.4393
especialmente	-11.4394
▁ryan	-11.4397
▁orixinariamente	-11.4398
▁asegurar	-11.44
▁manto	-11.4401
mini	-11.4402
▁experiencias	-11.4403
hr	-11.4403
▁leonardo	-11.4407
▁animados	-11.4408
rn	-11.4409
▁clasicas	-11.4414
▁0000-0000,	-11.4416
▁sucede	-11.4417
▁xestionado	-11.4417
▁doces	-11.442
▁helena	-11.4422
▁polaca	-11.4424
▁computacion	-11.4424
ь	-11.4425
▁solos	-11.4428
▁franz	-11.4429
▁xe	-11.443
▁atraccion	-11.4431
▁salva	-11.4432
▁consecutivos	-11.444
gues	-11.4441
▁concentracions	-11.4442
delo	-11.4443
fal	-11.4443
▁cineasta	-11.4443
▁educativo	-11.4443
▁introducida	-11.4443
▁costumes	-11.4444
▁deshabitada	-11.4447
▁cuantica	-11.4447
▁polideportivo	-11.4447
▁championship	-11.4447
▁ambalas	-11.4447
▁espiritual	-11.4447
▁mesquita	-11.4448
▁festivais	-11.4448
▁graham	-11.4448
▁vendidas	-11.4448
▁cat	-11.4449
▁oceania	-11.445
ici	-11.4451
▁holandes	-11.4453
▁alimentaria	-11.4458
▁missouri	-11.4463
▁bir	-11.4464
▁armado	-11.447
▁coleccions	-11.4471
cti	-11.4474
▁afinidade	-11.4477
kka	-11.4478
stein	-11.4482
mala	-11.4483
rp	-11.4484
▁martir	-11.4485
uc	-11.4485
▁hell	-11.4486
yl	-11.4489
▁descubrir	-11.4489
▁cr	-11.4492
▁destacada	-11.4494
▁kas	-11.4495
teria	-11.4495
cul	-11.4498
▁cala	-11.4505
cam	-11.4509
▁respecta	-11.451
▁holanda	-11.4512
▁ocorrido	-11.4512
▁renovacion	-11.4512
▁jaime	-11.4513
▁medula	-11.4513
▁pequin	-11.4513
eng	-11.4513
▁partida	-11.4514
▁inaugural	-11.4514
▁curtos	-11.4515
▁agrupados	-11.4516
▁thi	-11.4516
▁dependencia	-11.4516
aban	-11.4517
▁mississippi	-11.452
ute	-11.4521
▁aguiar	-11.4523
▁codia	-11.4523
▁parques	-11.4524
▁dona	-11.4525
▁elena	-11.4525
cur	-11.453
▁paxaros	-11.453
tera	-11.4531
side	-11.4536
cata	-11.4537
▁necesarios	-11.454
▁identificado	-11.4545
▁fly	-11.4547
▁africanos	-11.4547
▁morgan	-11.4547
▁falcon	-11.4548
lacion	-11.4549
▁gan	-11.455
▁sofre	-11.4551
▁suave	-11.4552
▁orixinando	-11.4553
ear	-11.4554
▁tende	-11.4556
xunto	-11.4557
▁manifesta	-11.4558
nh	-11.4559
▁act	-11.456
kal	-11.4563
jarvi	-11.4566
▁naves	-11.4566
▁exacta	-11.4569
▁nubes	-11.457
▁illada	-11.4572
▁naquela	-11.4572
▁bioloxicos	-11.4574
▁enfoque	-11.4574
▁patria	-11.4574
▁tumba	-11.4576
▁acostuma	-11.4576
▁dificultade	-11.4576
▁subcampion	-11.4577
▁anchura	-11.4577
▁puideron	-11.4577
▁consenso	-11.4577
▁destinada	-11.4577
▁invencion	-11.4577
▁extraccion	-11.4578
▁facilidade	-11.4578
▁lobeira	-11.4578
▁usarse	-11.4579
▁tabaco	-11.4579
▁natacion	-11.4582
▁bouzas	-11.4586
▁teito	-11.4588
▁pasta	-11.4592
▁nestas	-11.4594
▁cinta	-11.4597
lit	-11.4598
icia	-11.4603
▁centrada	-11.4604
▁medo	-11.4605
▁electricos	-11.4605
▁pistas	-11.4606
▁cuina	-11.4607
▁trastornos	-11.4609
mbu	-11.4609
▁realizando	-11.4609
▁arbustos	-11.4611
▁estruturais	-11.4613
▁bate	-11.4614
dale	-11.4614
▁chilena	-11.4618
▁ceca	-11.4619
▁competitivos	-11.462
bat	-11.4621
▁linguaxes	-11.4622
chas	-11.4622
iase	-11.4625
▁iria	-11.4628
home	-11.4628
hel	-11.4628
▁vistas	-11.4629
▁contina	-11.4629
▁nicaragua	-11.4632
▁cordas	-11.4635
▁concede	-11.4637
▁distribue	-11.4637
▁male	-11.4638
▁epico	-11.464
▁extrema	-11.4641
▁organico	-11.4642
▁pueblo	-11.4642
▁semifinais	-11.4642
▁underground	-11.4642
▁gallaecia	-11.4642
▁censura	-11.4642
▁planificacion	-11.4643
▁mongol	-11.4644
ington	-11.4645
cidos	-11.4645
▁ribadavia	-11.4645
▁lesion	-11.4646
▁fosen	-11.4646
▁apollo	-11.4647
costa	-11.4647
▁buscar	-11.4648
bin	-11.4648
▁pregamento	-11.4652
ime	-11.4654
▁back	-11.4654
▁linaxe	-11.4654
▁exame	-11.4655
▁gregas	-11.4655
▁peito	-11.4656
▁reune	-11.4658
▁causante	-11.4658
vent	-11.4662
▁transportar	-11.4663
rena	-11.4671
osos	-11.4671
▁cantar	-11.4674
▁pertencia	-11.4674
phe	-11.4674
▁arqueoloxicos	-11.4677
▁acoller	-11.4679
cat	-11.468
aka	-11.4681
▁derrotar	-11.4682
▁beat	-11.4684
▁vencer	-11.4698
▁this	-11.47
▁chairas	-11.4701
right	-11.4701
uto	-11.4702
▁cren	-11.4706
uz	-11.4706
▁combustion	-11.4708
▁carballido	-11.4708
▁supercopa	-11.4708
▁monetario	-11.4708
▁vinculado	-11.4709
▁litros	-11.4709
▁usualmente	-11.471
▁way	-11.4711
▁bohemia	-11.4714
▁ilustracion	-11.4715
▁moreira	-11.4716
cca	-11.4716
▁consecuencias	-11.4718
▁pozo	-11.472
▁correu	-11.4724
ques	-11.4725
▁supera	-11.4729
▁evolucionou	-11.4732
tle	-11.4733
▁planos	-11.4739
▁existia	-11.474
ub	-11.4747
▁sk	-11.4749
▁leo	-11.475
▁ε	-11.475
▁tha	-11.4751
▁padre	-11.4755
▁pioneiros	-11.4757
▁operar	-11.4757
oka	-11.4759
▁complexas	-11.4761
nic	-11.4764
▁nfl	-11.4765
xil	-11.4772
ス	-11.4774
▁brabham	-11.4774
▁enciclopedia	-11.4774
▁varsovia	-11.4774
▁aproximacion	-11.4774
▁bieito	-11.4774
▁antepasado	-11.4774
▁manuscrito	-11.4775
▁esquema	-11.4775
▁masiva	-11.4775
bara	-11.4775
▁bravo	-11.4776
ath	-11.4777
ward	-11.4777
ου	-11.4778
meri	-11.4779
▁bet	-11.4781
kha	-11.4782
▁foxo	-11.479
ibel	-11.479
▁disponibles	-11.4791
sobre	-11.4792
bis	-11.4792
norte	-11.4794
▁salienta	-11.4794
▁presas	-11.4799
▁uci	-11.4799
▁cubana	-11.4799
rono	-11.4805
▁federacions	-11.4807
▁cole	-11.4809
▁emma	-11.481
tp	-11.4813
hua	-11.4814
▁ky	-11.4815
▁tartarugas	-11.4818
▁gramnegativas	-11.4818
س	-11.4819
▁sw	-11.482
▁lanzaron	-11.4822
▁introducir	-11.4826
dico	-11.4829
▁tama	-11.4831
monte	-11.4833
▁etnicos	-11.4835
▁virtual	-11.4836
▁saami	-11.4837
▁ilustrado	-11.4839
▁serpe	-11.484
▁mercurio	-11.4841
▁plesetsk	-11.4841
▁sardena	-11.4841
▁navarro	-11.4841
▁deteccion	-11.4841
▁fortuna	-11.4841
▁paradanta	-11.4842
▁denuncia	-11.4842
▁sindicato	-11.4842
▁gloria	-11.4843
▁cuartos	-11.4844
▁mongolia	-11.4846
▁activacion	-11.4846
qa	-11.4848
▁pousada	-11.4849
▁greco	-11.4854
▁solida	-11.4859
▁romanico	-11.486
▁cepas	-11.486
▁operados	-11.4863
▁cargas	-11.4863
▁gotica	-11.4866
berto	-11.4867
▁prosa	-11.4871
▁belen	-11.4872
▁peroxa	-11.4879
▁earth	-11.4882
idad	-11.4882
▁casado	-11.4884
▁descritas	-11.4887
▁(000-000)	-11.4889
▁lake	-11.4895
rol	-11.4896
▁expresar	-11.49
▁teu	-11.4901
▁julia	-11.4903
▁menciona	-11.4906
▁proxeccion	-11.4906
▁verdadeira	-11.4906
gia	-11.4906
▁muda	-11.4906
▁noutro	-11.4908
▁lituano	-11.4908
▁radiodifusion	-11.4908
▁clasifican	-11.4908
▁criminal	-11.4908
▁deputada	-11.4908
▁xestoso	-11.4909
▁superorde	-11.4909
▁toscana	-11.4909
▁kelly	-11.4909
lidade	-11.4909
cea	-11.491
▁checoslovaquia	-11.491
▁conxunta	-11.491
air	-11.4913
▁lamela	-11.4913
▁caudal	-11.4914
▁adaptada	-11.4914
end	-11.4915
▁sedes	-11.4916
▁bond	-11.4918
dir	-11.4918
▁aplicada	-11.4919
▁johannes	-11.492
▁abundantes	-11.4921
▁socio	-11.4922
▁uniforme	-11.4925
▁vih	-11.4925
-0)	-11.4927
▁wal	-11.4928
lip	-11.4928
▁tese	-11.493
▁causan	-11.4932
adores	-11.4933
▁aguia	-11.4933
▁geo	-11.4935
▁veu	-11.4938
▁bebe	-11.494
chy	-11.494
taria	-11.494
▁darlle	-11.4945
▁espectaculos	-11.4946
▁abc	-11.4946
▁ocupaba	-11.4947
▁cata	-11.4947
▁tecnicos	-11.4949
▁more	-11.4951
nfl	-11.4951
▁pur	-11.4956
▁narrador	-11.4958
onse	-11.4963
▁mou	-11.4963
▁>	-11.4965
▁bol	-11.4965
▁guillerm	-11.4966
graf	-11.4967
boa	-11.4967
ingles	-11.4968
mpa	-11.4969
▁falla	-11.497
▁sl	-11.4971
▁nota	-11.4972
▁breogan	-11.4976
▁gutierrez	-11.4976
▁position	-11.4976
▁shakespeare	-11.4976
▁gandara	-11.4976
▁antropoloxia	-11.4976
▁complexidade	-11.4976
▁hitler	-11.4976
▁descendencia	-11.4976
▁express	-11.4976
▁sufixo	-11.4976
▁get	-11.4976
▁candidata	-11.4977
▁cristais	-11.4978
▁costume	-11.4979
▁bioloxico	-11.4979
▁claudio	-11.4979
▁hitita	-11.4979
▁country	-11.498
▁carnota	-11.498
▁superado	-11.498
▁bank	-11.4983
▁marxista	-11.4986
▁rexente	-11.4987
▁gai	-11.4988
▁cuntis	-11.4989
▁constituiu	-11.4991
▁atoparon	-11.4991
▁sultan	-11.4991
▁baku	-11.4995
▁δ	-11.4995
▁fon	-11.5
▁xiro	-11.5
nca	-11.5004
▁cera	-11.5005
う	-11.5011
▁consegue	-11.5011
▁consecutivas	-11.5013
▁borra	-11.5013
▁cc	-11.5015
▁meano	-11.5019
▁avia	-11.502
▁bebidas	-11.5021
▁caio	-11.5025
▁testemuna	-11.5025
▁guy	-11.5027
ερ	-11.5029
▁mitos	-11.5033
▁glo	-11.5038
lp	-11.5041
▁cume	-11.5041
▁refuxio	-11.5044
▁cortegada	-11.5044
▁seda	-11.5044
▁xbox	-11.5045
pos	-11.5045
▁pronto	-11.5046
head	-11.5047
▁latitude	-11.5047
▁informe	-11.5048
▁vecino	-11.5049
▁derivan	-11.5049
▁charlie	-11.5049
▁laureado	-11.505
▁casanova	-11.5052
▁plata	-11.5054
▁obtendo	-11.5055
▁anticorpo	-11.5058
▁drogas	-11.5059
▁funcionais	-11.5059
▁escribe	-11.5061
dil	-11.5062
▁posuir	-11.5069
▁metano	-11.5069
ن	-11.507
▁baden	-11.5072
▁lady	-11.5073
▁parto	-11.5076
на	-11.5078
▁light	-11.5078
cht	-11.5078
▁bis	-11.508
▁sports	-11.5082
ili	-11.5085
▁dependen	-11.5087
▁م	-11.509
▁balsa	-11.5091
▁intermedia	-11.5092
▁mercados	-11.5094
▁reconecen	-11.5095
▁noticias	-11.5096
▁torneos	-11.5096
▁nepal	-11.5097
▁sesions	-11.51
▁manchas	-11.51
▁ingredientes	-11.5103
▁pronunciado	-11.5105
▁profesion	-11.5106
porta	-11.5106
gni	-11.5108
▁aquitania	-11.5112
▁cereais	-11.5112
▁hercules	-11.5112
▁balcans	-11.5112
▁interface	-11.5112
▁inspirou	-11.5112
▁xurdiron	-11.5113
▁cruzamento	-11.5116
spira	-11.5119
lita	-11.5121
▁venres	-11.5124
lega	-11.5126
▁influenciado	-11.5126
*	-11.5127
grupo	-11.5128
і	-11.5131
▁hunt	-11.5132
▁celebrados	-11.5132
▁detalles	-11.5134
▁comics	-11.5141
▁corno	-11.5144
▁datas	-11.5145
▁four	-11.5146
▁heroes	-11.5146
▁testa	-11.5146
dou	-11.515
▁hart	-11.5152
▁suxiren	-11.5155
▁institucional	-11.5156
lino	-11.5158
▁azucres	-11.5159
▁vil	-11.5161
▁vivenda	-11.5163
stad	-11.5165
xeno	-11.5166
▁pasos	-11.5166
▁abella	-11.5167
▁xaponeses	-11.5169
nea	-11.5174
▁vector	-11.5175
xica	-11.5176
▁contaminacion	-11.5181
▁istambul	-11.5181
▁asumiu	-11.5181
▁dobraxe	-11.5181
▁coimbra	-11.5181
▁school	-11.5181
▁adicionais	-11.5182
▁propostas	-11.5182
▁sahara	-11.5182
asi	-11.5182
▁nalgun	-11.5182
▁ornamental	-11.5184
lismo	-11.5185
▁empresarial	-11.5187
▁coidado	-11.5188
▁vitima	-11.5189
▁kansas	-11.519
▁elaborada	-11.5191
▁italianos	-11.5195
▁faraon	-11.5198
suiza	-11.5198
▁integradas	-11.5198
▁xermano	-11.5198
▁adoptar	-11.5198
▁analiza	-11.5201
xente	-11.5204
▁mapas	-11.5204
▁acadaron	-11.5206
ер	-11.5207
▁xo	-11.5207
▁salsa	-11.521
▁acompanada	-11.5211
▁atoparonse	-11.5212
▁cuncha	-11.5216
▁literarias	-11.5217
▁habilidades	-11.522
▁acontece	-11.5225
▁onu	-11.5226
int	-11.5227
▁derivadas	-11.524
▁funk	-11.5241
▁fiscal	-11.5244
rey	-11.5248
▁harris	-11.5249
▁inf	-11.5249
▁arquidiocese	-11.525
▁territoriais	-11.525
▁triangular	-11.525
▁villeneuve	-11.525
▁xuventude	-11.525
▁consistia	-11.525
▁magdalena	-11.525
▁xeografo	-11.5251
▁catarina	-11.5251
▁doutoramento	-11.5252
▁mat	-11.5253
cano	-11.5253
▁alcala	-11.5255
▁percusion	-11.5257
▁socios	-11.5257
▁parecido	-11.5257
▁peteiro	-11.5257
▁tarefa	-11.5258
▁avance	-11.5258
▁separouse	-11.5258
▁biologo	-11.5258
▁xogando	-11.5262
▁iron	-11.5263
▁velo	-11.5266
▁incluense	-11.527
▁avila	-11.5272
▁clientes	-11.5273
▁clasificarse	-11.5274
▁faladas	-11.5275
▁billetes	-11.5276
▁boys	-11.5278
core	-11.5278
▁estoniano	-11.5278
▁creta	-11.5281
▁tenden	-11.5283
▁ganadores	-11.5283
▁cross	-11.5285
▁compiten	-11.5286
ز	-11.5286
▁musa	-11.5293
▁bang	-11.5296
▁famosas	-11.5297
▁celebrar	-11.5297
▁fornece	-11.5301
▁lento	-11.5302
dez	-11.5302
▁tradutora	-11.5302
▁milita	-11.5303
▁til	-11.5305
▁puntas	-11.5313
▁basicas	-11.5314
gil	-11.5315
▁pano	-11.5316
reo	-11.5318
▁rosal	-11.5318
▁lourenza	-11.532
▁rectangular	-11.532
▁xornais	-11.532
▁comprendido	-11.5321
▁cubrir	-11.5321
▁socioloxia	-11.5321
▁desempena	-11.5321
▁animation	-11.5321
pr	-11.5322
vu	-11.5322
▁teoloxia	-11.5322
media	-11.5323
▁acustica	-11.5326
▁platon	-11.5326
bul	-11.5327
▁virtude	-11.5328
▁consecutivo	-11.5328
▁diversa	-11.533
▁temos	-11.5332
▁estratexica	-11.5333
▁pechado	-11.5334
▁setenta	-11.5335
▁distribuidas	-11.5336
inglaterra	-11.5337
▁pina	-11.5338
▁converten	-11.534
▁prazas	-11.5341
auto	-11.5343
▁gusto	-11.5344
tinos	-11.5346
▁lau	-11.5347
▁basal	-11.5348
▁fen	-11.5349
▁sanguineos	-11.5351
▁fotografias	-11.5353
▁nube	-11.5356
▁artisticas	-11.5357
▁luas	-11.5362
▁antixenos	-11.5363
▁nobres	-11.5364
▁virxes	-11.5365
feld	-11.5365
▁cabaleiros	-11.5365
000,	-11.5366
▁urbanos	-11.5367
▁recad	-11.5367
uu	-11.537
▁demo	-11.5371
▁belas	-11.5372
▁erosion	-11.5372
▁conforma	-11.5373
oc	-11.5374
bury	-11.5375
ert	-11.5375
▁palau	-11.5379
▁temporadas	-11.538
posto	-11.5382
▁bron	-11.5382
▁tenan	-11.5386
▁psico	-11.5388
▁rodean	-11.5389
▁adquisicion	-11.5391
▁caamano	-11.5391
▁luterana	-11.5391
▁moldavia	-11.5391
▁spielberg	-11.5391
▁xinzo	-11.5391
▁causou	-11.5391
▁ciclismo	-11.5391
▁hispania	-11.5391
▁tocou	-11.5391
▁august	-11.5392
▁puntuacion	-11.5392
▁concreta	-11.5394
▁lixeira	-11.5395
▁definitivamente	-11.5396
▁acumulacion	-11.5397
▁festividade	-11.5399
▁equipamento	-11.54
▁referente	-11.54
▁incendio	-11.54
▁transmite	-11.54
bou	-11.5402
▁who	-11.5402
▁poderoso	-11.5404
▁pechada	-11.5404
▁sodio	-11.5405
▁agua	-11.5406
▁unicas	-11.5406
▁belo	-11.5408
ع	-11.5415
▁promove	-11.5417
▁datan	-11.5417
▁deulle	-11.5423
▁chave	-11.5426
▁atopados	-11.5427
long	-11.5427
▁gravados	-11.543
landia	-11.5432
▁cerimonias	-11.5433
lleiro	-11.5439
▁paga	-11.5441
▁raia	-11.5443
▁sus	-11.5443
sil	-11.5445
▁solista	-11.5446
duc	-11.5446
illo	-11.5448
▁ann	-11.545
▁parecen	-11.545
reira	-11.5455
▁kurt	-11.5461
▁adicional	-11.5461
▁amizade	-11.5462
▁mugardos	-11.5462
▁tierra	-11.5462
▁prefixo	-11.5462
▁lesions	-11.5464
mur	-11.5464
▁personalidades	-11.5465
▁simplificado	-11.5465
▁reina	-11.5466
▁castillo	-11.5468
▁anatolia	-11.5469
▁urss	-11.5469
▁brad	-11.5469
▁wild	-11.547
▁correcto	-11.547
glia	-11.548
▁adxacentes	-11.548
▁venceu	-11.5482
▁intervenen	-11.5484
▁cota	-11.5493
plo	-11.5495
▁casar	-11.5497
▁hei	-11.5499
cd	-11.5501
▁meu	-11.5507
tidae	-11.5509
▁estreados	-11.5511
comp	-11.5519
vido	-11.552
hen	-11.552
zz	-11.5521
▁ratos	-11.5527
▁exclusiva	-11.5529
▁melon	-11.553
lic	-11.5532
liza	-11.5533
▁aclamado	-11.5533
▁northumbria	-11.5533
▁danubio	-11.5533
▁comprension	-11.5533
▁honduras	-11.5533
▁subtropicais	-11.5533
▁franquista	-11.5533
▁plumaxe	-11.5534
▁wright	-11.5534
mene	-11.5535
▁tma	-11.5535
▁contraposicion	-11.5536
▁dourado	-11.5537
▁gnu	-11.5538
▁cali	-11.5538
▁abreviatura	-11.5539
▁0.000,00	-11.5541
▁humidas	-11.5542
▁feixe	-11.5544
▁secrecion	-11.5544
▁sonoras	-11.5544
▁vertente	-11.5545
▁revision	-11.5545
▁potente	-11.5545
▁migracion	-11.5545
fis	-11.5546
▁manifestacion	-11.5546
▁sri	-11.5548
▁monxe	-11.5548
vy	-11.5549
▁amaro	-11.555
come	-11.555
▁bruto	-11.5551
▁gin	-11.5554
▁teren	-11.5556
▁fluidos	-11.5557
▁amosan	-11.5561
▁positivo	-11.5564
▁sistematica	-11.5566
▁expertos	-11.5568
▁razas	-11.5573
lidos	-11.5573
▁cubertas	-11.558
▁wolf	-11.5581
▁capita	-11.5581
▁unificacion	-11.5585
rb	-11.5586
−0	-11.5586
guin	-11.5593
▁alain	-11.5596
▁justin	-11.5597
▁colectiva	-11.56
cera	-11.5601
▁cleveland	-11.5605
▁folclore	-11.5605
▁tinguidura	-11.5605
▁project	-11.5605
▁bahrain	-11.5605
▁fisioloxia	-11.5605
▁ribera	-11.5605
▁rurais	-11.5605
▁facilita	-11.5605
▁enclave	-11.5606
▁coloracion	-11.5606
▁aurora	-11.5606
▁000,000	-11.5606
▁enquisa	-11.5608
▁electricidade	-11.5608
▁fomento	-11.5608
▁antibioticos	-11.5609
▁aguda	-11.561
▁protestas	-11.5614
▁intentos	-11.5617
▁tennessee	-11.5618
▁custos	-11.5618
▁denominan	-11.5621
▁erros	-11.5622
andro	-11.5624
▁autonomas	-11.5625
▁separar	-11.5625
back	-11.5627
▁gobernantes	-11.5628
▁islandes	-11.563
▁enfronta	-11.5632
▁empregou	-11.5632
dido	-11.5634
▁distancias	-11.5637
▁adams	-11.5637
▁comprenden	-11.5637
rick	-11.5639
hem	-11.564
▁folga	-11.5642
▁force	-11.5642
idio	-11.5645
▁bernardo	-11.5645
▁libera	-11.5653
▁vecinas	-11.5654
▁lab	-11.5655
▁pintores	-11.5657
lica	-11.5657
▁exercitos	-11.5659
▁internos	-11.5662
ssel	-11.5663
proteina	-11.5665
▁ring	-11.5666
▁adquirir	-11.5672
▁aclamacion	-11.5678
▁mercury	-11.5678
▁purpura	-11.5678
▁reputacion	-11.5678
▁traxedia	-11.5678
▁tomaron	-11.5679
▁tolosa	-11.568
▁eugene	-11.568
oxi	-11.5681
▁soprano	-11.5682
▁sulfato	-11.5682
▁goleador	-11.5682
▁castrillon	-11.5683
▁medina	-11.5683
kel	-11.5684
▁materna	-11.5687
▁σ	-11.5689
▁vedra	-11.5691
elecomunicacions	-11.5693
▁recibia	-11.5695
less	-11.5696
▁maori	-11.5701
▁traseira	-11.5702
▁modalidades	-11.5704
inus	-11.571
▁lembra	-11.571
▁lobos	-11.571
▁nhl	-11.5711
▁carra	-11.5717
fol	-11.5717
▁albanes	-11.5718
▁mis	-11.5724
ges	-11.5727
▁wei	-11.5727
pola	-11.5728
▁consulta	-11.5734
▁elixidos	-11.5737
▁acha	-11.5743
leuronectiformes	-11.5751
▁suspension	-11.5751
▁proveniente	-11.5751
▁conservase	-11.5751
▁jerry	-11.5751
▁rivalidade	-11.5752
▁vende	-11.5752
▁xeoloxia	-11.5753
▁fixacion	-11.5753
▁gau	-11.5753
▁formatos	-11.5755
▁vilares	-11.5755
▁tsu	-11.5756
▁aparentemente	-11.5756
▁xoves	-11.5757
▁old	-11.5757
flor	-11.5759
▁superficies	-11.576
gard	-11.576
▁iniciada	-11.5762
▁norueguesa	-11.5766
▁urbanas	-11.5766
▁exposicions	-11.5767
▁conan	-11.5768
▁volcanico	-11.5768
rix	-11.5769
▁entendese	-11.577
▁gros	-11.5771
rexion	-11.5778
▁sesion	-11.578
▁miss	-11.5781
kk	-11.5786
telo	-11.5791
▁ˈ	-11.58
tai	-11.58
▁voar	-11.58
▁sinala	-11.5802
▁rep	-11.5803
▁danes	-11.5804
▁liquida	-11.5805
▁murallas	-11.5807
cun	-11.5811
▁ps	-11.5811
vil	-11.5812
▁debia	-11.5813
▁contando	-11.5813
▁pasaxe	-11.5816
▁moure	-11.5817
▁pres	-11.5818
oidea	-11.5818
▁efectiva	-11.582
▁...	-11.5822
polis	-11.5824
▁antartico	-11.5824
▁dispersion	-11.5824
▁ecuatorial	-11.5824
▁insercion	-11.5824
▁televisiva	-11.5824
▁benetton	-11.5824
▁sufraxio	-11.5824
▁excelencia	-11.5824
▁socialdemocrata	-11.5824
▁bacilo	-11.5824
▁vaso	-11.5824
▁line	-11.5824
▁monumental	-11.5825
▁filoloxia	-11.5825
▁virgin	-11.5827
▁liberais	-11.5828
▁avogada	-11.5829
▁anotou	-11.5832
▁viviron	-11.5836
▁estendido	-11.5839
▁matou	-11.5839
▁votacion	-11.5839
▁perdendo	-11.584
▁versos	-11.5841
ceda	-11.5842
▁graxa	-11.5842
▁ham	-11.5843
▁inimigo	-11.5844
▁tarda	-11.5844
▁anunciado	-11.5845
▁verba	-11.5845
▁helio	-11.5847
gado	-11.5848
ril	-11.5852
▁sat	-11.5857
▁evans	-11.5858
rf	-11.5859
▁pepe	-11.5859
▁emitiuse	-11.586
▁construiuse	-11.5863
▁distribuen	-11.5864
▁kha	-11.5867
▁pobres	-11.5868
▁cerro	-11.5868
▁provocar	-11.5872
▁acuaticas	-11.5872
▁arquivos	-11.5874
hal	-11.5875
wald	-11.5879
▁cabra	-11.588
▁vulgar	-11.5883
▁argumenta	-11.5883
plan	-11.5884
▁rusos	-11.5884
▁graficos	-11.5884
▁mio	-11.5885
▁proporcional	-11.5888
▁sue	-11.5891
▁margaret	-11.5891
▁ofrecer	-11.5892
▁inversa	-11.5895
▁dama	-11.5897
▁circunscricion	-11.5898
▁recipiente	-11.5898
▁seareiros	-11.5898
▁antroponimo	-11.5898
▁infraorde	-11.5898
▁silverstone	-11.5898
▁euroliga	-11.5899
▁caucaso	-11.5899
▁piquin	-11.59
▁ampliacion	-11.5901
▁enfase	-11.5902
▁lombo	-11.5902
ianos	-11.5904
▁abade	-11.5908
▁provocando	-11.5908
▁lombardia	-11.5908
▁protons	-11.591
▁rou	-11.5912
▁taka	-11.5913
▁honorificos	-11.5913
▁pele	-11.5913
▁delegacion	-11.5914
▁silvestre	-11.5914
▁protexido	-11.5914
▁xermanica	-11.5914
worth	-11.5914
▁primitivo	-11.5915
▁infraestrutura	-11.5915
▁insecto	-11.5915
▁somalia	-11.5916
tto	-11.5919
▁peptidos	-11.5919
-0.	-11.592
▁impostos	-11.5921
▁lis	-11.5922
▁helice	-11.5923
▁teclado	-11.5924
▁aparicions	-11.5925
ming	-11.5926
▁implicados	-11.593
▁sedimentos	-11.5931
▁irlandeses	-11.5931
▁chamaselle	-11.5934
▁clasificar	-11.5935
▁sofren	-11.5939
▁matematicos	-11.594
izo	-11.5942
frances	-11.5944
▁propuxo	-11.5949
nell	-11.595
▁trax	-11.5956
ary	-11.5957
▁abertos	-11.5957
▁escoitar	-11.5958
bach	-11.596
▁nacionalistas	-11.5962
▁deses	-11.5963
▁presentarse	-11.5964
posi	-11.5966
▁beneficio	-11.5966
▁vice	-11.5968
▁citada	-11.5968
▁iniciar	-11.5968
win	-11.597
▁acollida	-11.5973
▁astronomica	-11.5973
▁conceptual	-11.5973
▁corrupcion	-11.5973
▁discusion	-11.5973
▁iberico	-11.5973
▁rairiz	-11.5973
▁usanse	-11.5973
▁investiga	-11.5973
▁vangarda	-11.5974
▁replica	-11.5974
▁ecoloxia	-11.5974
▁volve	-11.5974
▁aluminio	-11.5977
▁estimula	-11.5977
▁raposo	-11.5977
▁creceu	-11.5978
▁-0.0000	-11.5979
santa	-11.5981
▁alegre	-11.5981
og	-11.5982
▁malaio	-11.5982
ч	-11.5983
▁ang	-11.5988
▁montero	-11.5989
▁actitude	-11.599
▁asasino	-11.599
▁relevante	-11.599
▁goza	-11.5991
▁cataliza	-11.5994
ovic	-11.5996
▁impulso	-11.5997
▁flamengo	-11.5998
▁perfecto	-11.5999
▁pesado	-11.6002
▁arre	-11.6003
▁deixaron	-11.6003
▁oslo	-11.6003
▁adaptacions	-11.6004
▁protozoos	-11.6005
vor	-11.6009
▁controlada	-11.601
ы	-11.6011
{\	-11.602
▁batallas	-11.6023
▁especializados	-11.6025
▁parente	-11.6025
▁bau	-11.6025
▁liquidos	-11.6026
▁syn	-11.6027
▁orto	-11.6028
▁eco	-11.6031
▁proceden	-11.6036
▁ful	-11.6039
mea	-11.604
form	-11.6045
▁morta	-11.6047
▁00°0′0′′	-11.6048
▁antioquia	-11.6048
▁continentais	-11.6048
▁pitchfork	-11.6048
▁research	-11.6048
▁rinoceronte	-11.6048
▁bafta	-11.6048
▁asterix	-11.6048
▁textura	-11.6048
▁decoracion	-11.6048
▁sesenta	-11.6049
▁budismo	-11.6049
▁calzada	-11.6051
▁mozambique	-11.6051
▁horizonte	-11.6051
▁incorporacion	-11.6051
▁charter	-11.6051
ova	-11.6053
▁leonor	-11.6056
▁teclados	-11.6057
▁vicedo	-11.6057
▁loito	-11.6058
▁xogadora	-11.6058
▁utiles	-11.6058
▁wisconsin	-11.6059
▁atopamos	-11.6059
▁mortes	-11.606
▁clemente	-11.6062
▁remontase	-11.6062
▁comparada	-11.6063
▁gul	-11.6066
▁adxectivo	-11.6066
▁modulo	-11.6066
ка	-11.6067
▁paciente	-11.6067
▁denver	-11.607
stoma	-11.6071
▁fragmento	-11.6071
▁estimacions	-11.6074
▁asiatica	-11.6074
▁recibido	-11.6075
▁studio	-11.6076
▁abel	-11.6078
▁-00.0000000	-11.6081
▁fio	-11.6082
vic	-11.6085
quin	-11.6086
г	-11.6086
sten	-11.6088
▁malta	-11.609
sing	-11.6092
rov	-11.6093
▁fixeronse	-11.6093
uck	-11.6095
▁nativas	-11.6097
pl	-11.6098
▁condesa	-11.6099
leon	-11.6099
▁dark	-11.61
▁iris	-11.61
▁aereas	-11.6101
inho	-11.6104
▁lanzados	-11.6105
▁pun	-11.6106
▁ruben	-11.6107
▁representaba	-11.6109
▁dinamarquesa	-11.6109
▁considerou	-11.6114
▁emiratos	-11.6114
lizacion	-11.612
▁osaca	-11.612
▁herbas	-11.6121
▁tipicos	-11.6121
▁recomenda	-11.6122
▁concesion	-11.6124
▁conquistou	-11.6124
▁enxeneira	-11.6124
▁colapso	-11.6124
▁benestar	-11.6124
▁prieto	-11.6124
▁prevista	-11.6125
▁levantamento	-11.6125
▁valverde	-11.6125
▁chineses	-11.6126
▁obtencion	-11.6126
▁recibindo	-11.6126
▁capitais	-11.6127
▁tibet	-11.6127
▁posibilidades	-11.613
▁xeneticos	-11.6131
▁incorporar	-11.6133
▁radial	-11.6133
stone	-11.6135
▁mag	-11.6136
▁seran	-11.6136
▁johnny	-11.6138
▁zume	-11.614
▁definen	-11.6141
▁gaspar	-11.6143
▁recurso	-11.6145
▁galardons	-11.6146
▁ecuacions	-11.6147
psi	-11.6147
▁triplo	-11.6147
▁pit	-11.6148
▁meso	-11.6152
▁bea	-11.6152
▁traballan	-11.6154
▁valida	-11.6156
▁cursos	-11.6157
fran	-11.6159
▁gram	-11.616
▁ms	-11.6161
▁bota	-11.6169
vella	-11.617
▁gracia	-11.6172
imi	-11.6173
▁cate	-11.6174
▁polares	-11.6175
▁camerun	-11.6175
▁francesas	-11.6176
▁granulos	-11.6176
▁sabese	-11.618
▁crias	-11.6183
▁illamento	-11.6184
▁electricas	-11.6184
▁poly	-11.6186
▁sorte	-11.6188
nti	-11.619
▁vegas	-11.6191
▁parellas	-11.6192
▁human	-11.6193
▁pintora	-11.6197
▁cultiva	-11.6199
nita	-11.62
▁birmingham	-11.62
▁hakkinen	-11.62
▁liverpool	-11.62
▁exhibicion	-11.62
▁gomesende	-11.62
▁falecemento	-11.62
▁mozart	-11.62
▁destruida	-11.6201
▁moderado	-11.6201
▁antropologo	-11.6201
▁coordinacion	-11.6201
▁documentacion	-11.6201
▁beatles	-11.6201
▁frederick	-11.6202
▁secos	-11.6202
▁densa	-11.6202
oria	-11.6207
uti	-11.6208
▁posibelmente	-11.6208
▁clube	-11.6209
▁diferencial	-11.6209
cili	-11.621
▁traducir	-11.6215
▁ambitos	-11.6215
▁caracas	-11.6217
▁etnica	-11.6217
▁soro	-11.622
▁outeiros	-11.6221
▁obreiro	-11.6221
▁guerreiro	-11.6221
▁quilometro	-11.6222
▁linne	-11.6222
madrid	-11.6223
▁two	-11.6227
▁apoiar	-11.6228
▁hera	-11.6229
tario	-11.623
▁divididos	-11.6232
▁pronuncia	-11.6232
xan	-11.6232
▁raro	-11.6236
▁suxeita	-11.6239
pica	-11.624
▁cidadan	-11.6244
▁conferencias	-11.6244
▁observa	-11.6244
▁causando	-11.6245
▁vinos	-11.6246
▁brillantes	-11.6246
▁editar	-11.6246
▁palla	-11.6247
▁adolf	-11.6247
clu	-11.6248
▁notacion	-11.6249
▁castelao	-11.6251
queiro	-11.6251
celo	-11.6252
▁primates	-11.6253
▁posuia	-11.6254
▁codificado	-11.6258
▁relevantes	-11.6259
shima	-11.6263
▁esquerdas	-11.6265
ith	-11.6266
jer	-11.627
cip	-11.6271
▁textil	-11.6272
▁volveron	-11.6273
▁soporta	-11.6274
▁xaen	-11.6275
rente	-11.6275
▁atmosferica	-11.6277
▁colesterol	-11.6277
▁escision	-11.6277
▁chocolate	-11.6277
▁hungara	-11.6277
▁corredoira	-11.6277
▁panorama	-11.6277
▁adriatico	-11.6277
▁iluminacion	-11.6277
▁nevada	-11.6277
▁verdi	-11.6279
▁actina	-11.628
▁misa	-11.6281
anos	-11.6282
▁parasito	-11.6283
▁temple	-11.6284
shu	-11.6285
eh	-11.6287
▁cid	-11.6287
pie	-11.6289
▁lexico	-11.6289
ava	-11.629
rar	-11.629
amina	-11.6293
▁concelleiros	-11.6293
▁kam	-11.6294
slav	-11.6295
▁gilbert	-11.6295
▁estaria	-11.6296
▁connecticut	-11.6297
▁transporta	-11.6298
▁gasteropodo	-11.6299
▁qa	-11.63
▁kol	-11.6303
tem	-11.6304
▁barros	-11.6305
vul	-11.6306
▁films	-11.6306
▁dimension	-11.6307
▁cape	-11.6307
▁desconecido	-11.6308
▁vas	-11.6308
▁comparado	-11.6308
▁materias	-11.6309
aleman	-11.631
cel	-11.6311
▁corta	-11.6313
▁cronicas	-11.6319
▁λ	-11.6319
▁creadas	-11.6319
▁internas	-11.632
▁tomando	-11.6321
nya	-11.6323
▁afluentes	-11.6329
▁solucions	-11.6337
▁jin	-11.6338
▁vivia	-11.6347
▁bran	-11.6349
yon	-11.6351
▁continuidade	-11.6355
▁microscopio	-11.6355
▁divulgacion	-11.6355
▁atribuido	-11.6355
▁senador	-11.6356
▁robinson	-11.6356
▁simultaneamente	-11.6356
▁inaugurada	-11.6358
▁adrian	-11.6359
▁herge	-11.6359
▁sinxelamente	-11.6359
▁constituir	-11.636
ntia	-11.6361
▁atomica	-11.6365
▁inmuno	-11.6365
▁uk	-11.6368
▁contrasta	-11.637
▁acordos	-11.6371
▁busto	-11.6371
▁estandares	-11.6375
▁greg	-11.6375
▁esparta	-11.6375
▁diplomatica	-11.6378
gt	-11.6379
▁enfrontamento	-11.6379
▁soldado	-11.6379
▁cg	-11.6379
▁atlantic	-11.6381
▁estatisticas	-11.6382
ht	-11.6382
▁colleita	-11.6383
thi	-11.6383
▁albi	-11.6385
▁icona	-11.6386
▁cirurxia	-11.6391
▁atravesada	-11.6396
▁sand	-11.6399
▁kill	-11.64
alto	-11.6401
ccion	-11.6402
▁protexe	-11.641
plasma	-11.641
▁pigmentos	-11.6412
▁inch	-11.6412
▁previa	-11.6413
amo	-11.6416
taba	-11.6423
orde	-11.6427
▁chad	-11.6431
▁ancora	-11.6432
▁cerebral	-11.6433
▁vancouver	-11.6433
▁xurdido	-11.6433
▁namibia	-11.6433
▁romanticismo	-11.6433
▁metropole	-11.6433
kas	-11.6435
▁ecoloxica	-11.6436
▁decidiron	-11.6436
▁batman	-11.6436
▁uva	-11.6436
iforme	-11.6437
campo	-11.6438
▁rag	-11.6439
▁silver	-11.6439
posicion	-11.644
▁insire	-11.6441
▁out	-11.6441
▁clinica	-11.6442
▁tratan	-11.6443
▁losada	-11.6444
▁timor	-11.6446
▁claude	-11.6446
▁inmigrantes	-11.6451
▁avex	-11.6453
▁acetil	-11.6455
▁estendeuse	-11.6455
0).	-11.6455
▁vincent	-11.6456
▁ua	-11.6457
▁estendida	-11.6458
▁bandeiras	-11.6461
pat	-11.6461
latin	-11.6461
▁cadros	-11.6464
▁gru	-11.6466
▁politicamente	-11.6467
▁apostolo	-11.6468
▁pil	-11.6469
▁pretendia	-11.6469
▁mili	-11.6469
▁rexistrada	-11.6471
▁mani	-11.6472
vora	-11.6473
▁trabada	-11.6474
▁fat	-11.6474
▁butan	-11.6474
ys	-11.6475
▁moza	-11.6475
▁make	-11.6476
▁queens	-11.6478
▁paraiso	-11.6479
▁afectar	-11.6479
fel	-11.6484
rell	-11.6486
rup	-11.6486
▁quintas	-11.6488
▁entradas	-11.6489
▁guerreiros	-11.649
▁mika	-11.649
pc	-11.649
φ	-11.6498
▁cantantes	-11.6499
▁intra	-11.6501
▁lp	-11.6502
eli	-11.6504
mac	-11.6507
emi	-11.6509
^{	-11.6511
▁manuscritos	-11.6511
▁0°0′0′′	-11.6511
▁bolivar	-11.6511
▁arqueoloxia	-11.6512
▁informa	-11.6512
▁cruza	-11.6512
▁subgrupo	-11.6512
▁rad	-11.6513
▁teruel	-11.6513
▁commonwealth	-11.6513
▁prohibicion	-11.6513
deus	-11.6514
▁ronald	-11.6517
▁convertido	-11.6518
▁sega	-11.6518
▁tons	-11.6519
▁marmore	-11.6519
▁perfil	-11.6521
▁paco	-11.6522
▁aplicado	-11.6527
▁subunidades	-11.6527
▁segredo	-11.6528
▁experimentou	-11.6529
itos	-11.653
▁sinxela	-11.6532
▁encontrarse	-11.6536
▁senorio	-11.6539
▁quedar	-11.6539
▁00.0	-11.654
▁pulmons	-11.654
▁hua	-11.6545
▁was	-11.6545
▁condenado	-11.6548
▁camba	-11.6549
gai	-11.655
oi	-11.6551
▁girl	-11.6551
▁pet	-11.6556
rido	-11.6556
fas	-11.6557
alta	-11.6558
▁coneceu	-11.6559
▁financeiros	-11.6561
▁centra	-11.6562
▁solidos	-11.6562
}{	-11.6565
▁portal	-11.6565
▁prezos	-11.6567
▁bello	-11.6567
▁retorno	-11.6569
▁meirandes	-11.6571
▁infraestruturas	-11.6573
nk	-11.6574
▁tomadas	-11.6574
▁graxas	-11.6574
▁glen	-11.6575
▁fred	-11.6579
colo	-11.6581
eti	-11.6586
▁misil	-11.6587
wurttemberg	-11.6591
▁concibido	-11.6591
▁intelectuais	-11.6591
▁neurotransmisor	-11.6591
▁munoz	-11.6591
▁organizou	-11.6591
▁wagner	-11.6591
▁paixon	-11.6591
▁galardoada	-11.6592
▁manifesto	-11.6592
▁sociologo	-11.6592
▁bela	-11.6593
▁baltar	-11.6593
▁evolucionaron	-11.6594
▁proporcions	-11.6595
▁significativas	-11.6596
▁sto	-11.6597
▁honda	-11.6598
▁xusta	-11.6598
▁sarah	-11.6598
▁salmon	-11.6598
▁palmares	-11.6599
▁abrir	-11.66
▁asumir	-11.6602
▁bundesliga	-11.6602
▁musculares	-11.6603
▁graf	-11.6603
▁luisiana	-11.6604
top	-11.6606
▁johan	-11.6607
grande	-11.6607
▁seguiron	-11.6608
▁ocupan	-11.6608
▁goma	-11.6609
▁titan	-11.6612
▁crista	-11.6615
▁tracks	-11.6618
▁abertas	-11.6619
▁exportacion	-11.6619
▁gallo	-11.662
▁exitosos	-11.6621
▁barroca	-11.6621
▁tartaruga	-11.6622
onia	-11.6623
▁arts	-11.6623
▁ricos	-11.6626
▁linfocitos	-11.6627
elos	-11.6629
▁bridge	-11.6629
ografia	-11.663
catro	-11.6635
house	-11.6636
abel	-11.6636
▁emperadores	-11.6638
▁pad	-11.6639
mour	-11.6639
▁esculturas	-11.664
▁say	-11.6641
▁fil	-11.6641
queira	-11.6642
▁book	-11.6646
▁condes	-11.6646
▁malo	-11.6647
▁mensaxes	-11.6647
cular	-11.6648
▁cris	-11.6648
▁0000-0000)	-11.665
▁xefes	-11.665
▁py	-11.6652
▁flue	-11.6657
▁cul	-11.6666
▁mailo	-11.667
▁euskal	-11.667
▁inmediato	-11.6671
▁taxonomia	-11.6671
▁vocabulario	-11.6671
▁aprender	-11.6671
▁aprobou	-11.6671
▁biodiversidade	-11.6671
▁paradigma	-11.6671
▁clorofila	-11.6671
▁estomago	-11.6671
▁declive	-11.6671
▁emigracion	-11.6671
▁trinidad	-11.6671
▁zooloxia	-11.6671
▁apoia	-11.6672
entes	-11.6673
cial	-11.6673
▁espiral	-11.6673
▁woman	-11.6674
▁altiplano	-11.6674
▁rubio	-11.6674
▁lectores	-11.6675
▁georg	-11.6676
▁raymond	-11.6676
▁propelente	-11.6677
▁maurice	-11.6677
▁tendencias	-11.6677
▁reich	-11.6678
▁desempenou	-11.6678
▁lind	-11.6681
▁canario	-11.6684
▁brevemente	-11.6684
▁jer	-11.6685
▁espino	-11.6686
▁nocion	-11.6687
▁liso	-11.6693
▁estra	-11.6695
▁secret	-11.6695
он	-11.6697
▁oscila	-11.6697
xeralmente	-11.6698
mellor	-11.6699
▁filosofica	-11.6699
▁subxenero	-11.67
▁ernesto	-11.67
▁lagoas	-11.671
▁denominarse	-11.6715
mona	-11.6716
▁molde	-11.6719
▁compon	-11.672
▁quinase	-11.6723
▁academicos	-11.6724
▁empreganse	-11.6726
cana	-11.6727
▁coloca	-11.6728
▁grosa	-11.6729
▁dozon	-11.6729
ndra	-11.673
nel	-11.6731
▁andaluza	-11.6734
▁epic	-11.6734
cao	-11.6739
▁anana	-11.6741
▁vermellos	-11.6744
▁parda	-11.6745
▁fall	-11.6747
▁peto	-11.6749
▁bud	-11.675
ij	-11.675
▁coagulacion	-11.6751
▁incorporou	-11.6751
▁perciformes	-11.6751
▁cardiaco	-11.6751
▁exceso	-11.6751
▁colision	-11.6752
▁sobreviviu	-11.6754
▁executiva	-11.6755
▁andy	-11.6755
▁impide	-11.6758
▁devesa	-11.6759
▁organizadas	-11.6759
▁caceres	-11.676
▁firme	-11.6763
▁petr	-11.6764
?]	-11.6764
▁samoa	-11.6768
▁curman	-11.6769
▁bun	-11.6771
▁xesta	-11.6773
▁atopada	-11.6774
▁gustavo	-11.6774
▁sean	-11.6777
▁tapa	-11.6778
▁amino	-11.678
▁ic	-11.6781
▁д	-11.6781
▁optico	-11.6781
▁informatico	-11.6782
▁sagrado	-11.6784
▁cadeira	-11.6785
umi	-11.679
▁tenta	-11.679
▁vexa	-11.6791
▁existian	-11.6793
▁radar	-11.6794
▁dalgunha	-11.6797
▁serantes	-11.6799
▁centrado	-11.6799
▁comercialmente	-11.68
▁castell	-11.6802
▁exportacions	-11.6805
▁publicadas	-11.6806
▁cri	-11.6808
▁evidente	-11.681
filia	-11.6811
▁turcos	-11.6814
ene	-11.6815
sey	-11.6816
▁sas	-11.6816
dun	-11.6818
▁tomada	-11.6821
are	-11.6824
dic	-11.6825
▁patrocinador	-11.6825
▁0:00	-11.6826
▁nico	-11.6827
tori	-11.6827
▁tou	-11.6829
▁hobbit	-11.6833
▁permitia	-11.6833
▁ayrton	-11.6833
▁wolfgang	-11.6833
▁horizontais	-11.6833
▁wessex	-11.6833
▁legend	-11.6833
▁utah	-11.6833
▁ninguen	-11.6833
▁pese	-11.6833
▁refuxiados	-11.6834
▁rivais	-11.6834
▁simetria	-11.6835
▁rat	-11.6835
▁casada	-11.6837
▁combinada	-11.6837
▁lameiro	-11.6837
▁importa	-11.684
▁brana	-11.6842
▁ordenadores	-11.6843
ote	-11.6845
▁centre	-11.6846
▁vinculada	-11.6846
▁arro	-11.6847
rium	-11.6847
▁pratos	-11.6849
conecida	-11.6851
▁bla	-11.6854
wen	-11.6857
▁pedi	-11.6858
▁describen	-11.6858
▁nm	-11.6861
republica	-11.6862
▁disputaron	-11.6862
▁conclusion	-11.6863
▁hil	-11.6863
▁afeccionados	-11.6864
▁obtido	-11.6864
▁explicacion	-11.6867
▁compartido	-11.6871
▁pegada	-11.6871
uria	-11.6873
cie	-11.6874
▁metalico	-11.6874
▁ameazada	-11.6875
monos	-11.6875
col	-11.6875
▁hat	-11.6878
▁aborixes	-11.6878
▁κ	-11.688
▁cher	-11.6884
orni	-11.6885
podos	-11.6885
▁recto	-11.6885
▁olimpicas	-11.6888
ppa	-11.6889
▁computador	-11.6893
▁liber	-11.6895
▁news	-11.6895
imo	-11.6899
▁luc	-11.6901
▁sucesos	-11.6902
▁ponen	-11.6904
▁holandesa	-11.6907
▁forno	-11.6908
▁peculiar	-11.6908
▁exemplar	-11.6909
▁cetaceos	-11.6909
▁administrado	-11.6913
▁fidxi	-11.6913
lay	-11.6913
▁sad	-11.6914
▁renuncia	-11.6914
▁defensivo	-11.6915
▁austrohungaro	-11.6915
▁instancia	-11.6915
▁retina	-11.6915
▁biosfera	-11.6915
▁azuis	-11.6915
llar	-11.6915
▁entregado	-11.6915
▁salceda	-11.6915
▁molgas	-11.6915
▁movie	-11.6916
▁kinki	-11.6916
▁maraton	-11.6917
▁influiu	-11.6917
metrica	-11.6917
▁corpus	-11.6918
▁ghana	-11.6918
tions	-11.6921
▁confirmou	-11.6922
ping	-11.6923
▁ascendeu	-11.6924
▁laboral	-11.6924
▁som	-11.6925
▁glico	-11.6927
▁parana	-11.6927
▁denota	-11.6929
glic	-11.6931
▁race	-11.6933
▁muse	-11.6936
▁aparellos	-11.6937
▁socialismo	-11.6938
centro	-11.6938
borg	-11.6941
▁vall	-11.6941
▁temperan	-11.6941
▁point	-11.6942
rista	-11.6942
▁descubriron	-11.6944
yi	-11.6945
▁ferroviaria	-11.6947
▁soluble	-11.6947
▁terremoto	-11.6947
▁bloques	-11.6947
▁resistente	-11.6947
▁intermedio	-11.6948
▁legado	-11.6948
zou	-11.6949
▁postura	-11.6951
▁europe	-11.6951
▁estudante	-11.6952
▁00°00′0.0′′	-11.6953
ен	-11.6953
▁mare	-11.6954
▁cancela	-11.6954
▁secreta	-11.6954
▁realismo	-11.6955
▁melodia	-11.6956
▁pineiros	-11.6957
cita	-11.6957
▁rex	-11.6959
▁formulacion	-11.6961
▁demostrar	-11.6962
jon	-11.6962
▁obrigado	-11.6963
▁intentou	-11.6964
ijo	-11.6967
▁pesa	-11.6968
▁plans	-11.6973
▁paula	-11.6973
▁tigre	-11.6976
▁afirmou	-11.6977
▁crece	-11.6985
sfera	-11.6988
▁mansell	-11.699
▁clon	-11.6992
▁cifras	-11.6993
neu	-11.6995
▁constelacions	-11.6996
▁kenneth	-11.6997
▁legendarium	-11.6997
▁hector	-11.6997
▁fenotipo	-11.6997
▁fonetica	-11.6997
▁arnoia	-11.6997
▁dolores	-11.6998
▁jordi	-11.6999
dino	-11.6999
▁licenciado	-11.7
▁mariano	-11.7001
▁pontenova	-11.7003
nil	-11.7005
cept	-11.7007
▁esnafrouse	-11.7007
tec	-11.7008
▁bul	-11.7009
isa	-11.7009
tula	-11.701
▁georges	-11.7011
▁condutor	-11.7012
▁superando	-11.7012
bacter	-11.7014
▁privadas	-11.7014
▁procariotas	-11.7017
▁crateres	-11.7017
marca	-11.7018
▁alban	-11.7018
▁nes	-11.7021
▁feministas	-11.7024
guipuscoa	-11.7027
▁ami	-11.7027
▁bailarina	-11.7027
pare	-11.7028
zio	-11.703
▁piramide	-11.7031
▁sentimento	-11.7031
▁primitiva	-11.7032
00)	-11.7033
▁terrorista	-11.7034
dec	-11.7037
zal	-11.7037
mond	-11.7038
▁leito	-11.7039
▁fundaron	-11.7044
▁ruido	-11.7045
axe	-11.705
▁box	-11.705
xida	-11.7054
▁acusado	-11.7055
▁clasificadas	-11.7055
bit	-11.7058
▁organulos	-11.7059
▁kal	-11.7061
▁permanecer	-11.7062
▁volcans	-11.7067
ryu	-11.7074
▁flo	-11.7075
ال	-11.7076
▁tunel	-11.7077
▁trip	-11.7077
▁correcta	-11.7077
▁violin	-11.7078
▁mars	-11.7079
▁baltimore	-11.7081
▁escravitude	-11.7081
▁surcoreano	-11.7081
▁vandenberg	-11.7081
▁xudaismo	-11.7081
▁ludwig	-11.7081
▁bilingue	-11.7081
▁ernst	-11.7081
▁comprendia	-11.7081
▁camilo	-11.7081
▁press	-11.7081
▁mauricio	-11.7081
▁eddie	-11.7081
▁nueva	-11.7081
▁ilustracions	-11.7081
▁diminuiu	-11.7082
▁sacramento	-11.7083
▁manual	-11.7083
▁normalizacion	-11.7083
▁estritamente	-11.7084
▁mortais	-11.7086
▁reg	-11.7086
▁espe	-11.7087
▁impe	-11.7088
▁tornouse	-11.7089
▁covid	-11.7091
▁mediano	-11.7093
▁barxa	-11.7093
mpi	-11.7093
▁agraria	-11.7095
▁matando	-11.7099
scar	-11.71
▁trobador	-11.7101
▁bordos	-11.7103
quia	-11.7105
▁prohibido	-11.7106
anto	-11.7107
▁paisaxes	-11.7108
▁militantes	-11.711
posta	-11.711
pronunciado	-11.7114
▁if	-11.7115
ation	-11.7115
▁explosion	-11.7115
▁muisca	-11.7116
▁mero	-11.7117
▁narracion	-11.7119
▁expresan	-11.7119
fan	-11.712
▁mid	-11.712
ت	-11.7124
ridae	-11.7125
casa	-11.7129
▁how	-11.7129
▁copenhague	-11.7131
▁run	-11.7132
leiro	-11.7133
▁ernest	-11.7135
▁alter	-11.7135
▁esto	-11.7135
▁gravada	-11.7137
▁autoria	-11.7138
▁abd	-11.714
▁pictos	-11.7141
sburg	-11.7144
▁vel	-11.7147
izan	-11.715
ocitos	-11.7159
▁imposible	-11.7165
▁profeta	-11.7165
▁portuaria	-11.7165
▁patinaxe	-11.7165
▁gobernamental	-11.7165
▁cronista	-11.7165
enne	-11.7165
▁queensland	-11.7166
▁aumentou	-11.7166
▁ramiro	-11.7166
▁determinacion	-11.7168
xene	-11.7168
▁venen	-11.7169
mura	-11.7169
▁pasamento	-11.7171
▁savoia	-11.7171
estra	-11.7173
▁fabricar	-11.7174
▁oculta	-11.7175
cade	-11.7178
▁neta	-11.7179
esti	-11.718
▁acolleu	-11.7183
▁ribeiras	-11.7184
ento	-11.7184
▁pali	-11.7185
▁doutora	-11.7185
ave	-11.7186
▁berg	-11.7186
▁xogaron	-11.719
▁debida	-11.719
▁ocorrer	-11.7191
▁portland	-11.7192
▁estatais	-11.7193
▁ice	-11.7193
cci	-11.7195
literalmente	-11.7195
barcelona	-11.7195
▁pintado	-11.7199
▁areal	-11.7201
▁espectaculo	-11.7202
▁serras	-11.7203
▁yar	-11.7204
▁ash	-11.7206
▁transforma	-11.7209
med	-11.7211
▁codifica	-11.7214
▁augusta	-11.7214
▁rubia	-11.7215
▁aceptado	-11.7215
▁rapa	-11.7216
spora	-11.7221
▁crecer	-11.7221
▁bibliotecas	-11.7221
▁incrementar	-11.7223
▁femininas	-11.7224
▁ocean	-11.7226
pico	-11.7228
▁consideraba	-11.7229
▁amante	-11.7233
▁gara	-11.7234
ст	-11.7235
▁medicamentos	-11.7235
▁picos	-11.7237
guera	-11.7238
▁pega	-11.7238
▁recon	-11.7238
▁necesitan	-11.7241
▁mori	-11.7246
logos	-11.7247
▁abre	-11.7248
▁aristoteles	-11.7249
▁cantabrica	-11.7249
▁consorcio	-11.7249
▁xudiciais	-11.7249
▁tasmania	-11.7249
▁century	-11.7249
▁youtube	-11.7249
▁homologa	-11.725
▁preservacion	-11.725
▁bmw	-11.7251
▁aceptacion	-11.7251
▁muniz	-11.7251
▁ltd	-11.7251
▁wallace	-11.7251
▁senior	-11.7252
▁wayne	-11.7252
▁tampa	-11.7253
▁controlado	-11.7253
▁comica	-11.7255
▁party	-11.7256
▁naquel	-11.7256
▁mensaxeiro	-11.7257
▁lomba	-11.7258
▁masivo	-11.7259
▁irregulares	-11.7261
▁sabio	-11.7262
▁destacadas	-11.7266
▁inda	-11.7267
▁imita	-11.7267
▁especializadas	-11.7267
▁propon	-11.7268
▁sobrenome	-11.7271
nam	-11.7272
000)	-11.7273
▁orientado	-11.7274
isi	-11.7278
▁berger	-11.7278
▁desas	-11.7279
sueco	-11.7281
▁mente	-11.7283
avi	-11.7283
▁pulmonar	-11.7284
▁xeoloxica	-11.7284
▁xeran	-11.7286
fos	-11.7287
▁anglosaxon	-11.7287
▁adolescente	-11.7288
▁aborixe	-11.7288
▁consecutiva	-11.7288
▁acontecemento	-11.7289
▁cumpre	-11.729
▁implicadas	-11.7292
▁kings	-11.7293
iko	-11.7294
▁executado	-11.7294
fitas	-11.7295
ped	-11.7297
▁semanal	-11.7297
ichi	-11.7301
▁mecanico	-11.7302
▁dick	-11.7302
isti	-11.7303
eth	-11.7304
▁call	-11.7304
▁cars	-11.7307
▁dre	-11.7308
etta	-11.7309
mul	-11.7309
sada	-11.731
▁bart	-11.731
▁minorias	-11.731
fora	-11.7312
ев	-11.7313
▁0.00	-11.7315
▁tonga	-11.7316
▁faga	-11.7318
▁preparar	-11.7319
▁prominente	-11.7325
▁incorporada	-11.7325
▁desenvolven	-11.7325
▁oxido	-11.7326
▁frias	-11.733
▁diminuir	-11.7332
▁roy	-11.7333
▁edda	-11.7335
▁0°00′0.00′′	-11.7335
▁berkeley	-11.7335
▁cobertura	-11.7335
▁thriller	-11.7335
▁historiografia	-11.7335
▁aleatoria	-11.7335
▁п	-11.7335
▁belize	-11.7335
▁austin	-11.7336
ort	-11.7336
▁radicais	-11.7337
▁psicologo	-11.7337
▁sentenza	-11.7337
▁mons	-11.7337
▁turisticos	-11.7338
▁harmonia	-11.7338
dente	-11.7339
▁humanista	-11.7339
▁maquinaria	-11.734
▁belle	-11.734
▁mtv	-11.7341
▁granito	-11.7343
fir	-11.7343
▁mercia	-11.7343
nais	-11.7347
▁robot	-11.7347
▁queixa	-11.7351
▁carter	-11.7351
▁libano	-11.7352
▁formase	-11.7352
▁pensaba	-11.7352
▁musulman	-11.7353
▁lanzamentos	-11.7354
ciano	-11.7355
▁romeo	-11.7356
ati	-11.7358
▁pigmento	-11.7359
▁xestiona	-11.7359
boy	-11.7359
▁corais	-11.7361
▁herda	-11.7361
rman	-11.7365
finlandia	-11.7367
▁transito	-11.7368
▁balon	-11.7369
lac	-11.7371
▁wil	-11.7373
▁carballeira	-11.7374
▁progresista	-11.7374
▁asistente	-11.7374
▁innovacion	-11.7374
▁expedicions	-11.7376
stou	-11.7376
▁nicolao	-11.7377
▁utilizaron	-11.7377
▁crearon	-11.7377
▁ofrecen	-11.7377
▁espina	-11.7378
ische	-11.7378
▁asma	-11.7379
▁veas	-11.7379
▁integrante	-11.738
cap	-11.7382
▁φ	-11.7382
▁comunistas	-11.7382
▁brit	-11.7383
terio	-11.7383
▁law	-11.7384
ight	-11.7385
▁continuar	-11.7386
▁conservado	-11.7386
mark	-11.7389
nov	-11.7389
▁debian	-11.7394
▁apoiado	-11.7395
▁surf	-11.7395
▁kami	-11.7399
▁medrar	-11.74
corre	-11.7401
iba	-11.7405
▁evita	-11.7408
▁damon	-11.741
▁prat	-11.7411
▁adoitaba	-11.7411
▁ortega	-11.7412
▁comen	-11.7414
vik	-11.7415
tim	-11.7416
▁fontan	-11.742
▁middle	-11.742
ま	-11.7421
▁extraordinaria	-11.7421
▁saitama	-11.7421
▁defensiva	-11.7421
▁intestinal	-11.7421
▁people	-11.7421
▁remake	-11.7421
▁franquismo	-11.7421
▁adquirida	-11.7421
▁sidney	-11.7421
▁mosquera	-11.7421
▁disposto	-11.7421
▁represion	-11.7421
▁asemade	-11.7422
▁inauguracion	-11.7422
▁ramiras	-11.7422
metria	-11.7422
▁facenda	-11.7422
▁jimmy	-11.7422
▁cameron	-11.7422
▁bueu	-11.7423
▁destruido	-11.7423
arn	-11.7423
bria	-11.7424
tini	-11.7426
▁molina	-11.7427
▁oliva	-11.7427
▁peruano	-11.7428
▁realizaron	-11.7428
ية	-11.743
▁lega	-11.743
▁carpo	-11.7431
▁pensar	-11.7431
▁levi	-11.7432
▁magic	-11.7438
▁ideais	-11.7438
▁pantanos	-11.7441
meros	-11.7444
▁feas	-11.7444
▁bert	-11.7446
▁beck	-11.7449
▁unir	-11.7449
▁otan	-11.7451
▁granxa	-11.7451
▁balde	-11.7457
▁electo	-11.7459
▁montanoso	-11.7462
▁distintivo	-11.7462
▁castineira	-11.7462
▁arbusto	-11.7462
▁islamico	-11.7464
▁dub	-11.7464
▁pobre	-11.7467
▁ronda	-11.7468
▁choque	-11.7468
▁cabezas	-11.7469
etti	-11.747
▁sombra	-11.7471
▁riga	-11.7474
▁habitos	-11.7475
▁viaxeiros	-11.7476
▁vese	-11.7479
pper	-11.748
▁sap	-11.7481
lectromagnetica	-11.7483
▁primeiramente	-11.7485
▁marx	-11.7485
▁correr	-11.7487
▁بن	-11.7488
▁bano	-11.7489
▁valga	-11.7489
▁detecta	-11.749
▁rick	-11.749
▁kom	-11.7491
▁mea	-11.7491
▁ace	-11.7496
▁rodada	-11.7499
▁estimado	-11.75
▁nacer	-11.7503
▁regulado	-11.7505
cado	-11.7507
▁cosmonauta	-11.7508
▁fornelos	-11.7508
▁heinrich	-11.7508
▁stuttgart	-11.7508
▁sucedido	-11.7508
▁terminoloxia	-11.7508
▁vogais	-11.7508
▁saavedra	-11.7508
▁sanscrito	-11.7508
▁etiope	-11.7509
▁visby	-11.7509
▁harold	-11.7509
cultural	-11.7509
▁cornualles	-11.7511
▁locucion	-11.7513
wy	-11.7513
▁ovario	-11.7514
▁caldeira	-11.7514
▁reinante	-11.7514
▁modificar	-11.7522
▁influenciada	-11.7523
▁xeograficamente	-11.7524
▁carril	-11.7526
▁latinoamerica	-11.7527
▁reconeceu	-11.7527
▁mate	-11.7527
▁0°	-11.7528
▁xerada	-11.7531
▁salt	-11.7531
metil	-11.7531
▁nine	-11.7532
▁homero	-11.7532
▁infrecuente	-11.7532
▁pacifica	-11.7534
▁semellanzas	-11.7535
▁fuente	-11.7535
▁salientables	-11.754
▁illado	-11.7541
▁golf	-11.7542
▁literarios	-11.7544
▁realizaronse	-11.7545
ων	-11.7547
▁internationale	-11.7549
▁pedreira	-11.7551
▁crocodilo	-11.7551
▁lem	-11.7551
▁primario	-11.7552
▁rega	-11.7553
▁orixinado	-11.7554
uela	-11.7554
ania	-11.7557
▁aceptada	-11.7557
▁recordings	-11.7558
▁franxas	-11.7564
dende	-11.7567
▁catalogado	-11.7569
▁ο	-11.7572
▁rexeita	-11.7575
▁ficheiros	-11.7576
gana	-11.7577
▁caracteristicos	-11.7578
king	-11.7581
▁vidas	-11.7582
▁sinonimos	-11.7583
▁pluton	-11.7585
▁а	-11.7585
▁rela	-11.7588
imos	-11.7588
▁sup	-11.7589
▁eficiente	-11.7591
▁bil	-11.7592
▁antebrazo	-11.7596
▁infantis	-11.7596
▁teatrais	-11.7596
▁vocabulo	-11.7596
▁inmunoglobulina	-11.7596
▁moderada	-11.7596
▁cantigas	-11.7596
▁amoeiro	-11.7596
▁seixas	-11.7596
▁impedir	-11.7596
▁cristias	-11.7597
▁avaliacion	-11.7597
iaceae	-11.7598
▁designada	-11.7598
▁masacre	-11.7598
tc	-11.7599
▁thompson	-11.7599
▁kos	-11.7599
izando	-11.7599
▁supostamente	-11.76
▁battle	-11.7601
▁ble	-11.7602
▁ligando	-11.7602
▁haxa	-11.7604
mada	-11.7606
▁falso	-11.7606
▁acunado	-11.7607
ה	-11.7608
▁mul	-11.7609
rem	-11.761
rella	-11.761
▁especialistas	-11.7611
▁lograron	-11.7611
▁manda	-11.7612
▁that	-11.7613
▁nosos	-11.7613
▁memorial	-11.7614
▁compartir	-11.7614
agora	-11.7614
▁astronomos	-11.7614
▁legalmente	-11.7615
▁visibles	-11.7616
▁constituintes	-11.7623
▁cadrada	-11.7624
▁abreviada	-11.7626
▁nacionalizado	-11.7627
▁roo	-11.763
▁000-000)	-11.7631
patia	-11.7633
▁oportunidade	-11.764
▁tiburon	-11.764
▁madura	-11.764
▁salgueiro	-11.7641
▁arda	-11.7642
▁dario	-11.7642
iste	-11.7643
▁relativo	-11.7646
▁sentimentos	-11.7648
▁pase	-11.7648
▁consul	-11.765
▁side	-11.7654
▁salvo	-11.7658
▁coi	-11.7659
rma	-11.7659
▁serrano	-11.7659
▁kwa	-11.7661
▁leonard	-11.7664
οι	-11.7667
▁garden	-11.767
mine	-11.7671
▁reivindica	-11.7671
▁ensina	-11.7676
▁nega	-11.7678
▁taxonomica	-11.768
▁xava	-11.7683
▁maiuscula	-11.7684
▁manteiga	-11.7684
▁xurasico	-11.7684
▁margarida	-11.7684
▁crespo	-11.7684
▁collins	-11.7685
pot	-11.7685
▁descomposicion	-11.7686
▁puig	-11.7686
▁xabier	-11.7686
leo	-11.7686
▁noventa	-11.7687
▁pineira	-11.7687
▁walker	-11.7687
▁amiga	-11.7687
▁tartaro	-11.7688
▁jules	-11.7688
urus	-11.7689
▁australianos	-11.7689
▁badaxoz	-11.7692
▁grella	-11.7693
▁marvel	-11.7693
▁combater	-11.7694
▁dino	-11.7694
▁luns	-11.7694
▁divina	-11.7696
▁almirante	-11.7696
▁deutsche	-11.7697
▁anxiospermas	-11.7701
={\	-11.771
▁embarcacions	-11.7711
lice	-11.7712
▁pink	-11.7714
ла	-11.7715
▁arrecifes	-11.7715
rom	-11.7716
ificado	-11.7717
▁constan	-11.7717
▁escolar	-11.7722
pierre	-11.7722
thal	-11.7724
▁hero	-11.7725
▁levaban	-11.7725
▁sovieticos	-11.7727
tun	-11.7728
▁subida	-11.7729
▁conselleiro	-11.773
▁particula	-11.773
▁necesarias	-11.773
▁experto	-11.7731
▁take	-11.7732
xy	-11.7732
▁regueiro	-11.7733
▁dicia	-11.7733
▁kur	-11.7733
▁historiadora	-11.7736
▁mencionada	-11.7739
▁suso	-11.7743
fono	-11.7745
chines	-11.7745
▁salientan	-11.7747
lee	-11.7748
▁astro	-11.7749
▁ergue	-11.775
▁kil	-11.7751
▁indios	-11.7752
\,}	-11.7753
▁singles	-11.7756
▁talla	-11.7757
▁jun	-11.7757
ал	-11.7757
▁acepta	-11.776
▁celtic	-11.7762
▁senso	-11.7762
▁viso	-11.7762
▁camboxa	-11.7762
▁sancho	-11.7763
romana	-11.7763
neg	-11.7764
▁bab	-11.7769
▁merito	-11.777
▁infanta	-11.7772
fec	-11.7772
▁amplitude	-11.7774
▁pittsburgh	-11.7774
▁transparente	-11.7774
▁verticais	-11.7774
▁ferdinand	-11.7774
jennifer	-11.7774
▁aparecido	-11.7774
▁bonaparte	-11.7774
▁tenda	-11.7774
▁alongada	-11.7775
▁rossini	-11.7775
▁ligue	-11.7777
cke	-11.7779
▁mitocondrial	-11.7779
▁tumores	-11.7779
▁cinc	-11.778
▁cic	-11.7781
▁monstro	-11.7782
▁cito	-11.7783
▁dios	-11.7783
▁tito	-11.7784
▁magnetica	-11.7786
▁sucesivas	-11.7787
ult	-11.779
▁oregon	-11.779
▁llan	-11.7794
▁talento	-11.7798
▁blu	-11.7799
▁boris	-11.7799
run	-11.78
agh	-11.7803
▁gobernado	-11.7803
▁asocia	-11.7808
mpo	-11.7809
massachusetts	-11.781
▁porsche	-11.7811
▁radi	-11.7813
▁xoana	-11.7813
▁definicions	-11.7815
▁nena	-11.7815
▁foille	-11.7817
▁localizados	-11.7818
anda	-11.7818
novo	-11.7821
▁ecosistema	-11.7821
uki	-11.7823
▁gametos	-11.7824
▁deposito	-11.7824
▁privados	-11.7828
▁cultivada	-11.7828
▁pacific	-11.783
▁crimea	-11.7831
▁pagan	-11.7832
hidroxi	-11.7835
▁uro	-11.7838
▁metil	-11.7838
▁esencia	-11.7839
ntraron	-11.7841
▁fornos	-11.7842
▁suarna	-11.7843
strom	-11.7843
▁xeneticas	-11.7847
▁vira	-11.7847
▁docente	-11.7848
escrito	-11.7852
▁basea	-11.7852
▁elixir	-11.7852
▁gh	-11.7853
▁rochosas	-11.7854
▁pascual	-11.7854
▁fertil	-11.7857
▁capitalismo	-11.7859
▁tramos	-11.786
▁lev	-11.7862
▁memorias	-11.7863
▁epitelio	-11.7864
▁excentricidade	-11.7864
▁lloyd	-11.7864
▁ruptura	-11.7864
▁okinawa	-11.7864
▁shanghai	-11.7864
▁abelleira	-11.7864
▁fortificado	-11.7864
▁beatriz	-11.7864
▁fieis	-11.7864
▁patricia	-11.7864
▁amarante	-11.7864
▁coronel	-11.7864
▁unicelulares	-11.7865
▁cualificacion	-11.7865
zzi	-11.7866
▁anano	-11.7866
▁brillo	-11.7867
▁diaspora	-11.7867
▁lanka	-11.7867
pet	-11.7867
▁constituindo	-11.7868
miento	-11.7869
▁semente	-11.7871
▁esferica	-11.7871
▁terminais	-11.7872
gala	-11.7873
▁museum	-11.7873
▁ligados	-11.7874
▁goku	-11.7876
▁colonos	-11.7876
▁naceron	-11.7877
canto	-11.7877
▁edgar	-11.7878
ech	-11.7878
▁ig	-11.7879
▁fiba	-11.7881
▁tocando	-11.7881
▁dificiles	-11.7882
▁gt	-11.7883
▁castano	-11.7883
cco	-11.7885
▁josh	-11.7886
▁mutua	-11.7886
▁limited	-11.7886
▁valley	-11.7886
▁negativas	-11.7886
▁chiba	-11.7887
▁fundadora	-11.789
▁angulos	-11.7891
gio	-11.7892
nin	-11.7893
ιος	-11.7894
▁blanca	-11.7894
▁neil	-11.7895
▁extrae	-11.7896
▁mago	-11.7896
▁rc	-11.7898
▁canons	-11.79
mun	-11.7904
▁duquesa	-11.7904
▁miro	-11.7904
nunciouse	-11.7907
▁grava	-11.791
▁under	-11.791
▁rom	-11.7912
▁futura	-11.7912
▁tecnoloxico	-11.7912
▁retrato	-11.7913
▁longobardo	-11.7913
▁efectivo	-11.7913
▁parlamentaria	-11.7913
▁fru	-11.7913
▁partidarios	-11.7913
▁toxico	-11.7914
▁asalto	-11.7914
▁quintana	-11.7918
▁vara	-11.792
▁meda	-11.792
▁cabelo	-11.792
▁bara	-11.7921
▁what	-11.7923
▁xacobe	-11.7924
▁songs	-11.7926
▁neozelandes	-11.7926
▁curvas	-11.7927
eses	-11.7929
beta	-11.793
pec	-11.7931
mper	-11.7931
▁termina	-11.7932
zoos	-11.7933
▁xulian	-11.7934
▁penta	-11.7934
lv	-11.7935
▁mundialmente	-11.7936
▁computadora	-11.7938
▁gay	-11.7941
tara	-11.7941
siva	-11.7943
▁lira	-11.7951
▁zen	-11.7951
▁preferente	-11.7952
▁viaxar	-11.7953
▁aceptar	-11.7953
▁castrexo	-11.7955
▁ecoloxista	-11.7955
▁gali	-11.7955
▁piraguismo	-11.7955
▁discovery	-11.7955
▁southern	-11.7955
▁00°0′	-11.7955
▁camarinas	-11.7955
▁fitonimo	-11.7955
udo	-11.7955
rib	-11.7955
αρ	-11.7955
▁benigno	-11.7955
▁enteiramente	-11.7957
▁emperatriz	-11.7957
▁cunaxe	-11.7958
▁regueira	-11.7958
▁allo	-11.7959
▁cad	-11.796
▁puente	-11.7962
▁permitiron	-11.7963
▁vascular	-11.7964
▁pumar	-11.7971
▁thing	-11.7972
clo	-11.7972
▁catalans	-11.7973
▁desaparecer	-11.7976
▁tailandes	-11.7977
▁leopoldo	-11.7977
▁ina	-11.798
▁pedroso	-11.7981
▁atopabase	-11.7982
▁auxiliar	-11.7986
▁adopta	-11.7988
▁sito	-11.7988
▁envolve	-11.7988
▁just	-11.7989
bir	-11.799
▁solares	-11.7992
dita	-11.7992
▁cheiro	-11.7992
cdot	-11.7994
▁lara	-11.7995
leg	-11.7998
▁maxia	-11.8001
▁gy	-11.8001
▁enviar	-11.8001
▁externas	-11.8002
▁brand	-11.8003
0°00′0.0′′	-11.8004
▁sd	-11.8004
anas	-11.8004
normalmente	-11.8004
▁intelixente	-11.8005
▁patoxeno	-11.8006
▁desastre	-11.8006
▁rapaz	-11.8006
▁perenne	-11.8006
riase	-11.801
▁sustenta	-11.801
▁thr	-11.8011
▁id	-11.8011
quina	-11.8011
▁funcionario	-11.8014
▁criterio	-11.8015
▁goa	-11.8015
▁ile	-11.8019
uso	-11.8019
coi	-11.802
▁sac	-11.802
▁superou	-11.802
inen	-11.8023
portuguesa	-11.8023
dg	-11.8023
▁iniciado	-11.8025
rec	-11.8025
sho	-11.8026
▁regulan	-11.8031
▁tense	-11.8032
▁pir	-11.8034
hun	-11.8036
xar	-11.8038
▁operador	-11.8039
▁atopaba	-11.8039
▁evil	-11.8039
oxeno	-11.804
▁disputan	-11.8041
▁romanesa	-11.8042
of	-11.8042
▁decidir	-11.8044
▁alxebrica	-11.8046
▁reticulo	-11.8046
westfalia	-11.8046
▁embarazo	-11.8046
▁mendoza	-11.8046
▁ibidem	-11.8046
▁theatre	-11.8046
▁peregrinacion	-11.8046
▁abdome	-11.8046
▁recombinacion	-11.8047
▁puntuable	-11.8047
▁scho	-11.8048
tilo	-11.8048
▁gotland	-11.8048
▁roedores	-11.8049
▁mercadorias	-11.8049
τα	-11.8049
▁gaita	-11.8049
▁estendeu	-11.8051
▁colaboradores	-11.8052
▁galli	-11.8052
▁rial	-11.8052
nadas	-11.8053
▁parentesco	-11.8053
▁aga	-11.8055
-00-	-11.8055
▁alc	-11.8056
▁tenente	-11.8057
▁shah	-11.8058
▁servidor	-11.8058
▁xamais	-11.8059
▁tun	-11.806
▁luci	-11.8062
▁parker	-11.8062
ejo	-11.8063
gno	-11.8064
▁wan	-11.8064
▁cast	-11.8066
▁excepcions	-11.8067
▁activamente	-11.8068
▁owen	-11.8068
ceiro	-11.8069
▁protistas	-11.8069
▁gur	-11.8071
▁modificado	-11.8072
▁like	-11.8073
▁americanas	-11.8075
▁aaron	-11.8076
▁conservadora	-11.8076
longa	-11.8078
▁louro	-11.8079
▁distingue	-11.808
▁regularmente	-11.808
▁aparecendo	-11.8081
▁encimatica	-11.8082
▁kay	-11.8083
▁mitocondrias	-11.8084
▁efectivos	-11.8089
▁miden	-11.8091
adi	-11.8091
hard	-11.8092
▁eps	-11.8092
ladio	-11.8093
▁feble	-11.8093
▁marcel	-11.8094
▁carlista	-11.8094
▁pecha	-11.8095
00%	-11.8097
▁conservar	-11.8098
onico	-11.8098
▁encontrar	-11.81
▁avanzada	-11.8104
▁capturar	-11.8106
▁persia	-11.8108
▁usaba	-11.811
lma	-11.8111
▁reco	-11.8114
▁isla	-11.8117
▁comporta	-11.8118
▁niza	-11.8119
▁sita	-11.8119
▁oracion	-11.8121
▁mam	-11.8123
dios	-11.8125
▁tora	-11.8127
cidas	-11.8128
ial	-11.8131
istico	-11.8131
she	-11.8132
▁cantos	-11.8133
gn	-11.8133
▁estres	-11.8134
▁renome	-11.8136
▁autoctona	-11.8139
▁huelva	-11.8139
▁ranaceos	-11.8139
▁filosofa	-11.8139
▁dispersa	-11.8139
▁exacto	-11.8139
▁smash	-11.8139
▁numeracion	-11.8139
▁urbanizacion	-11.8139
▁subprefectura	-11.8139
▁transcurso	-11.8139
▁dezasete	-11.814
xenico	-11.814
▁compresion	-11.814
▁women	-11.814
▁cristobal	-11.814
▁piemonte	-11.814
▁maduracion	-11.8141
hin	-11.8141
▁tokai	-11.8142
▁substitue	-11.8143
▁aviv	-11.8146
sic	-11.8146
▁turbo	-11.8147
▁cacho	-11.815
▁competiron	-11.815
▁capacidades	-11.815
ops	-11.8151
▁combinado	-11.8153
lai	-11.8156
▁baby	-11.8158
▁continuaron	-11.8159
▁caselas	-11.8159
▁kirk	-11.816
rinos	-11.816
▁comic	-11.8162
▁pernas	-11.8164
▁moura	-11.8166
gl	-11.8167
▁promotor	-11.817
▁sy	-11.8173
zoa	-11.8175
familia	-11.8177
▁mp	-11.8178
▁bei	-11.8179
▁equivalentes	-11.8179
▁elabora	-11.8182
day	-11.8186
lix	-11.8187
▁tipicas	-11.8188
▁achegas	-11.8192
▁sinfonia	-11.8193
▁tesouro	-11.8193
▁paseriforme	-11.8193
▁ensinanza	-11.8193
rion	-11.8196
▁в	-11.8197
▁enviado	-11.8199
▁peticion	-11.82
ин	-11.8201
arios	-11.8205
-00)	-11.8206
▁fosfo	-11.8207
ivos	-11.8213
▁manu	-11.8213
▁bits	-11.8217
▁implicada	-11.8218
▁drive	-11.8219
▁producirse	-11.822
▁card	-11.8226
▁bear	-11.8226
▁luisa	-11.8227
▁guadalupe	-11.8232
▁hokkaido	-11.8232
▁minuscula	-11.8232
▁prevencion	-11.8232
▁suicidio	-11.8232
▁descobre	-11.8232
▁multinacional	-11.8233
▁eugenio	-11.8233
▁respiratoria	-11.8233
▁padrenda	-11.8233
▁rapaces	-11.8233
▁watson	-11.8233
▁carnivoros	-11.8234
▁cartelle	-11.8234
▁castilla	-11.8234
▁selvas	-11.8235
▁mobilidade	-11.8236
▁demostracion	-11.8237
▁morris	-11.8238
▁sena	-11.8238
▁sexualidade	-11.8238
▁protagonizou	-11.8239
▁neutro	-11.824
▁localizacions	-11.824
▁oroso	-11.824
▁lon	-11.8243
▁mocion	-11.8248
▁bancos	-11.8249
000.	-11.8249
▁distinguense	-11.825
▁sinalar	-11.825
▁pata	-11.8253
eis	-11.8255
▁vera	-11.8256
▁representase	-11.8256
rigo	-11.8256
▁sagrada	-11.8256
▁hbo	-11.8257
▁cornos	-11.826
▁intenta	-11.8261
▁ancha	-11.8263
▁jet	-11.8263
▁salvaxes	-11.8267
tomi	-11.8273
▁uniu	-11.8274
rase	-11.8274
▁colle	-11.8275
▁sv	-11.8276
▁(00.000	-11.8281
kt	-11.8281
▁moto	-11.8281
▁mitico	-11.8282
▁espinas	-11.8283
▁dalgun	-11.8287
▁filoxenetica	-11.8288
▁instrucion	-11.8289
▁protestante	-11.829
▁illados	-11.8294
▁gerard	-11.8298
▁hexa	-11.8298
▁marcus	-11.8299
▁xil	-11.8301
▁logro	-11.8302
▁centroamerica	-11.8303
▁page	-11.8308
▁sabado	-11.8309
av	-11.8311
▁localmente	-11.8316
▁organizados	-11.8316
eur	-11.8316
▁executar	-11.8316
▁significativos	-11.8321
chon	-11.8321
tase	-11.8325
▁restaurantes	-11.8326
▁adopcion	-11.8327
▁controvertido	-11.8327
▁cuarteto	-11.8327
▁gobernamentais	-11.8327
▁montouto	-11.8327
▁requeixo	-11.8327
▁envoltura	-11.8327
▁xenocidio	-11.8327
▁britania	-11.8327
▁renania	-11.8327
▁subcontinente	-11.8327
▁family	-11.8327
▁entroido	-11.8327
▁history	-11.8327
▁respiratorio	-11.8327
▁channel	-11.8328
▁irene	-11.8328
▁domina	-11.8328
▁ulster	-11.8328
▁convencionais	-11.8328
▁corral	-11.8328
▁temporais	-11.8329
ης	-11.8329
▁nucleicos	-11.8329
▁correspondencia	-11.833
▁linear	-11.8333
▁paleontologo	-11.8334
▁iowa	-11.8338
▁stock	-11.8339
▁retro	-11.8339
▁daba	-11.8341
▁lip	-11.8342
▁retirarse	-11.8343
▁saen	-11.8344
▁penetra	-11.8344
dade	-11.8345
agas	-11.8346
▁ss	-11.8346
▁there	-11.8346
mira	-11.8348
▁contextos	-11.8348
▁playoffs	-11.835
▁acepcion	-11.8353
▁nervios	-11.8353
▁conformacion	-11.8356
▁altar	-11.8361
▁prince	-11.8362
▁touch	-11.8362
▁invadi	-11.8363
martin	-11.8364
▁vos	-11.8366
sistema	-11.8369
▁matsu	-11.8369
▁longobardos	-11.837
▁divi	-11.8371
▁alemas	-11.8373
▁republicas	-11.8374
▁definiu	-11.8377
burgo	-11.8379
▁resistentes	-11.8384
▁herbacea	-11.8385
▁restricion	-11.8385
▁cae	-11.8386
▁rematada	-11.8386
▁previo	-11.8386
▁bancadas	-11.8387
lugar	-11.8388
▁electric	-11.8392
▁identificada	-11.8395
rad	-11.8399
gha	-11.84
rdi	-11.8403
▁bac	-11.8405
▁lla	-11.8406
▁off	-11.8406
▁goberna	-11.8407
gul	-11.8409
▁torna	-11.8409
▁bares	-11.841
indo	-11.8411
▁escoita	-11.8412
▁avances	-11.8412
▁illadas	-11.8412
uza	-11.8415
▁estudoso	-11.8416
tibetana	-11.8416
ssi	-11.8416
▁proporcionan	-11.8417
▁calcular	-11.8418
▁sum	-11.842
elia	-11.842
▁tumor	-11.842
▁let	-11.8422
▁alcaldia	-11.8422
▁caballero	-11.8422
▁desaparecida	-11.8422
▁luminosa	-11.8422
▁mourentan	-11.8422
▁sensibilidade	-11.8422
▁fisteus	-11.8422
▁mensual	-11.8422
▁tunisia	-11.8422
▁rescate	-11.8422
▁alusion	-11.8422
▁savonia	-11.8422
▁buffalo	-11.8422
▁sobremesa	-11.8422
▁lourido	-11.8422
▁estrito	-11.8423
▁tobago	-11.8423
▁rexeitamento	-11.8423
▁retorica	-11.8423
▁nbc	-11.8423
▁portomarin	-11.8423
▁tardia	-11.8424
▁break	-11.8425
▁rexe	-11.8425
▁oh	-11.8426
▁guadalaxara	-11.8427
▁coruxo	-11.8428
▁desenou	-11.8428
▁integramente	-11.8429
▁vectores	-11.843
▁remontan	-11.8431
▁sn	-11.8433
grafica	-11.8434
▁modesto	-11.8435
▁tinta	-11.8435
▁cooperativa	-11.8436
▁(0000-00)	-11.8438
▁ganglios	-11.8441
iidae	-11.8442
▁arc	-11.8443
▁fusionou	-11.8444
▁hemi	-11.8446
▁dividense	-11.8446
mara	-11.8446
lem	-11.8447
▁conmemora	-11.8447
▁descubertos	-11.8447
▁igrexario	-11.8449
▁analizar	-11.845
▁alza	-11.8451
▁faixa	-11.8451
▁cloro	-11.8451
▁difiren	-11.8452
▁bella	-11.8454
tros	-11.8456
▁fos	-11.8456
▁condena	-11.8456
▁actuando	-11.8458
ελ	-11.8458
▁prologo	-11.8458
▁bug	-11.8461
▁bosniaco	-11.8462
▁surafricana	-11.8464
rel	-11.8464
hardcore	-11.8464
rusia	-11.8466
▁agrupan	-11.8466
▁pene	-11.8477
▁muiscas	-11.8477
▁led	-11.8479
▁farmaco	-11.8481
▁sanitaria	-11.8481
▁gab	-11.8481
▁prisioneiros	-11.8481
▁polemica	-11.8482
▁seguro	-11.8482
▁proteica	-11.8482
dt	-11.8482
▁nucleotido	-11.8483
▁revolucionaria	-11.8483
▁complementa	-11.8485
▁pataca	-11.8485
▁colin	-11.8486
▁afeccionado	-11.8487
rer	-11.8489
▁cidada	-11.8491
▁moa	-11.8492
▁mae	-11.8494
▁figuran	-11.8495
▁chamouse	-11.8495
▁desenvolvese	-11.8496
▁pesada	-11.8498
▁arde	-11.8502
▁dy	-11.8505
gall	-11.8505
▁wy	-11.8505
▁got	-11.8507
ware	-11.8509
▁coincidi	-11.8512
▁destruir	-11.8512
gata	-11.8516
▁estre	-11.8517
▁distorsion	-11.8518
▁himalaia	-11.8518
▁transmitida	-11.8518
▁vanuatu	-11.8518
▁periodicidade	-11.8518
▁subdivide	-11.8518
▁reggae	-11.8518
▁carcere	-11.8518
▁milleiros	-11.8518
▁focino	-11.8519
▁rexencia	-11.8519
▁boicot	-11.8519
▁atribue	-11.852
▁titularidade	-11.852
▁montaxe	-11.852
▁marxes	-11.8521
▁burton	-11.8522
mena	-11.8523
▁atenea	-11.8524
vet	-11.8525
ро	-11.8525
▁herbert	-11.8525
▁llo	-11.8525
▁xornalismo	-11.8526
▁viron	-11.8531
▁orixinar	-11.8532
awa	-11.8532
▁modernista	-11.8534
▁acta	-11.8534
▁arm	-11.8535
raz	-11.8536
▁pagar	-11.8537
▁over	-11.8538
och	-11.8539
▁tomado	-11.854
▁entende	-11.8542
▁constantes	-11.8542
▁continuan	-11.8543
get	-11.8548
▁culmina	-11.8548
▁engade	-11.855
▁funda	-11.8551
▁desenvolvidas	-11.8552
▁respostas	-11.8556
▁pulmon	-11.8557
ار	-11.8557
dense	-11.8559
▁decapodos	-11.8559
park	-11.8559
▁mallo	-11.8561
illinois	-11.8561
chamada	-11.8562
▁animado	-11.8565
chamado	-11.8567
▁seven	-11.8568
pteros	-11.8568
▁mona	-11.8574
▁tem	-11.8576
▁infante	-11.8578
▁obtidos	-11.8578
▁rexistrado	-11.8579
▁filosofico	-11.8579
▁fractura	-11.8579
▁incidente	-11.8579
▁salientable	-11.8581
▁noutra	-11.8581
alla	-11.8584
meta	-11.8585
▁enfrontamentos	-11.8586
union	-11.8587
▁multiplica	-11.8587
▁mudou	-11.8587
organ	-11.859
morfo	-11.8593
▁cocido	-11.8595
▁licor	-11.8597
▁roland	-11.8599
▁finlandesa	-11.86
moi	-11.8601
jos	-11.8601
▁tara	-11.8603
vers	-11.8603
▁venta	-11.8603
▁lep	-11.8604
vert	-11.8604
▁ditas	-11.8606
vari	-11.8606
▁paro	-11.8608
gne	-11.861
ois	-11.861
▁comercializado	-11.861
▁model	-11.861
fil	-11.8614
icula	-11.8614
▁controvertida	-11.8615
▁orlando	-11.8615
▁galileo	-11.8615
▁margarita	-11.8615
▁falecida	-11.8615
▁campbell	-11.8615
▁estivese	-11.8615
▁arnold	-11.8616
▁anonima	-11.8616
▁liceo	-11.8616
▁quechua	-11.8617
▁dominacion	-11.8617
▁ganouna	-11.8617
▁sumatra	-11.8618
▁0,0-	-11.8618
▁consideraban	-11.8618
▁consumidores	-11.862
▁espello	-11.8621
fc	-11.8622
▁provocada	-11.8623
▁coencima	-11.8623
▁oido	-11.8624
ullo	-11.8626
▁android	-11.8629
▁munin	-11.8631
▁resultando	-11.8633
trofo	-11.8635
burn	-11.8635
▁lineal	-11.8637
▁reitor	-11.864
▁0:0	-11.8642
▁dedica	-11.8646
eau	-11.8646
▁lauda	-11.8647
▁salvar	-11.8648
▁flu	-11.8648
▁iemen	-11.8649
▁estendia	-11.865
▁colaborador	-11.8651
▁maine	-11.8652
motor	-11.8653
▁sondas	-11.8654
ubi	-11.8654
▁ib	-11.8655
▁creadores	-11.866
mora	-11.8661
▁administrador	-11.8664
▁administra	-11.8665
▁peregrinos	-11.8669
▁fotografa	-11.8672
china	-11.8674
▁flaxelos	-11.8674
▁taxons	-11.8676
▁linguisticas	-11.8678
▁psicoloxico	-11.8678
▁abandona	-11.8678
▁excelente	-11.8678
▁divindade	-11.8678
▁algoritmo	-11.8679
▁arrecife	-11.8679
▁choiva	-11.8679
▁metabolica	-11.868
▁days	-11.8681
▁bailarin	-11.8681
▁expulsado	-11.8684
ow	-11.8686
▁bois	-11.8686
▁presidencial	-11.8687
▁medias	-11.8687
kos	-11.8689
ciu	-11.8691
▁primitivos	-11.8692
gol	-11.8693
▁exercer	-11.8693
iche	-11.8693
▁corvo	-11.8698
toloxia	-11.8698
▁mouros	-11.8699
▁monarcas	-11.87
mt	-11.8703
redo	-11.8703
rop	-11.8704
▁revela	-11.871
mand	-11.8711
sistiu	-11.8712
▁propaga	-11.8712
▁hermann	-11.8712
ipe	-11.8712
▁anglosaxoa	-11.8713
▁belgrado	-11.8713
▁concluiu	-11.8713
▁fukuoka	-11.8713
▁mezquita	-11.8713
▁muhammad	-11.8713
▁venezolano	-11.8713
▁sussex	-11.8713
▁voou	-11.8713
▁reconquista	-11.8713
▁belfast	-11.8713
▁convenio	-11.8713
▁escaleira	-11.8713
▁gaiteiro	-11.8713
▁antoine	-11.8713
▁comesana	-11.8713
▁abeledo	-11.8714
▁hudson	-11.8714
▁aviles	-11.8714
▁analitica	-11.8714
▁kau	-11.8715
▁azores	-11.8716
uch	-11.8716
▁dependentes	-11.8717
▁bass	-11.8718
▁acento	-11.8719
ture	-11.872
shan	-11.8722
▁laza	-11.8723
·	-11.8724
▁renal	-11.8726
▁haia	-11.8727
▁mesturado	-11.8728
rbe	-11.8732
▁encabezado	-11.8741
▁poio	-11.8741
▁levante	-11.8742
activa	-11.8744
▁entran	-11.8744
▁nazis	-11.8746
▁metabolicas	-11.8748
apo	-11.8752
▁pic	-11.8752
cru	-11.8756
ricos	-11.8756
biscaia	-11.8758
▁escoller	-11.8759
▁ditos	-11.8762
▁alternativas	-11.8763
▁nantes	-11.8765
▁(0,0	-11.8766
▁mandarin	-11.8768
▁compartida	-11.8768
▁asinar	-11.877
▁torrente	-11.877
▁debeda	-11.8771
▁puidese	-11.8771
▁linfaticos	-11.8774
▁asenta	-11.8774
coma	-11.8775
▁0/0	-11.8776
mic	-11.8777
▁horreo	-11.8778
▁intervalo	-11.8778
minou	-11.8778
▁convocado	-11.8779
▁negativo	-11.8779
▁sanguinea	-11.878
aud	-11.8781
▁mandibula	-11.8784
dona	-11.8787
▁escavacions	-11.8787
sc	-11.8788
ddy	-11.8788
▁secreto	-11.8789
▁xiras	-11.8789
▁estimacion	-11.8792
▁rubi	-11.8793
▁triple	-11.8798
ificada	-11.88
▁lino	-11.8803
ace	-11.8805
▁variada	-11.8806
▁rematado	-11.8806
▁sr	-11.8808
▁suposta	-11.8808
▁pedre	-11.8809
▁visitar	-11.881
▁joy	-11.881
▁feudal	-11.8811
▁heat	-11.8811
▁sche	-11.8812
▁enerxetico	-11.8812
▁envergadura	-11.8812
▁escandinavia	-11.8812
▁figueroa	-11.8812
▁fuselaxe	-11.8812
▁izquierda	-11.8812
▁lavandeira	-11.8812
▁piruvato	-11.8812
▁pregunta	-11.8812
▁asuncion	-11.8812
▁meiose	-11.8812
▁sinatura	-11.8812
▁bioquimico	-11.8812
▁dylan	-11.8813
▁gou	-11.8813
▁definitivo	-11.8813
▁doadamente	-11.8813
▁acompanamento	-11.8814
▁nikola	-11.8815
▁implicado	-11.8815
▁axudante	-11.8816
▁00,00%	-11.8816
▁vagamente	-11.8816
▁comparti	-11.8818
▁cidadania	-11.8818
▁alude	-11.8819
▁ley	-11.8822
▁etica	-11.8823
▁precursores	-11.8823
ness	-11.8825
ipo	-11.8827
い	-11.8828
▁vietnamita	-11.8831
aire	-11.8831
▁bird	-11.8831
▁esgos	-11.8831
▁cubo	-11.8832
▁horario	-11.8833
▁circo	-11.8833
▁termico	-11.8835
▁desenvolvendo	-11.8836
▁regulada	-11.8837
▁distinguese	-11.8838
▁moises	-11.8839
▁amar	-11.8841
▁slam	-11.8845
▁madurez	-11.8846
▁limon	-11.8847
wing	-11.8849
plas	-11.8852
▁variadas	-11.8855
▁maxico	-11.8857
▁cloroplastos	-11.8857
uchi	-11.8857
▁denso	-11.8858
pensilvania	-11.8858
▁montanosas	-11.8858
principalmente	-11.8859
condado	-11.8859
▁estelar	-11.886
▁estereo	-11.8861
nec	-11.8862
▁laminas	-11.8862
▁conectar	-11.8865
actualmente	-11.8869
▁leton	-11.8873
▁ה	-11.8873
αν	-11.8874
▁fago	-11.8875
▁cliente	-11.888
▁chuvia	-11.8881
kra	-11.8881
▁ascende	-11.8885
▁pensa	-11.8885
▁grosor	-11.8886
pte	-11.8886
▁localizadas	-11.8886
▁irmandade	-11.8888
▁made	-11.8889
aran	-11.8889
▁calvos	-11.889
▁homologos	-11.8892
▁stan	-11.8893
▁provinciais	-11.8894
▁provenza	-11.8896
▁chor	-11.8902
▁ا	-11.8904
ش	-11.8904
▁afectados	-11.8905
▁chamabase	-11.8906
!"	-11.8908
▁serina	-11.8909
▁axusta	-11.8909
▁garantir	-11.891
▁recoller	-11.891
▁tahiti	-11.8911
pleuronectoideos	-11.8912
▁beverly	-11.8912
▁pedagogo	-11.8912
▁resonancia	-11.8912
▁suxeriu	-11.8912
▁mahoma	-11.8912
▁paleolitico	-11.8912
▁lactea	-11.8912
▁depredadores	-11.8913
▁seabra	-11.8913
▁discriminacion	-11.8913
▁dacota	-11.8915
▁melilla	-11.8915
▁algodon	-11.8917
▁mosca	-11.8918
▁criado	-11.8921
udi	-11.8921
malia	-11.8921
+0	-11.8922
▁pulso	-11.8922
▁ambia	-11.8922
▁orc	-11.8922
ions	-11.8924
▁usaron	-11.8924
▁vellos	-11.8924
▁moss	-11.8925
▁astur	-11.8928
▁profundidades	-11.8928
▁arcade	-11.8929
▁xeologo	-11.8931
over	-11.8932
laxe	-11.8933
chel	-11.8933
▁diferencianse	-11.8933
▁terry	-11.8934
▁infra	-11.8935
▁recollen	-11.8936
ables	-11.8939
▁lonxitudes	-11.8939
▁rostro	-11.894
▁edita	-11.8943
▁asigna	-11.8944
▁blas	-11.8944
▁comportamentos	-11.8944
▁derivacion	-11.8947
▁mazaricos	-11.895
▁salientar	-11.8953
▁utilizouse	-11.8954
zza	-11.8955
▁anexion	-11.8956
▁tsun	-11.8957
▁liv	-11.8959
despois	-11.8959
work	-11.896
gram	-11.8961
▁toy	-11.8963
dur	-11.8967
▁interpretan	-11.8968
▁homonimos	-11.8968
▁artisticos	-11.8969
▁drag	-11.897
▁mudo	-11.8973
pun	-11.8976
▁sonoro	-11.8976
▁angela	-11.8977
▁seleccionada	-11.8977
▁editados	-11.898
▁toques	-11.8981
ih	-11.8981
▁castineiro	-11.8981
▁mucosa	-11.8981
▁obtida	-11.8981
▁imposto	-11.8982
▁constituinte	-11.8985
part	-11.8987
▁detalle	-11.8987
▁sentidos	-11.8987
▁outrora	-11.8988
capital	-11.8988
ologo	-11.8989
▁prega	-11.8995
▁entrevista	-11.8995
▁palo	-11.8997
▁etno	-11.8998
▁kir	-11.8998
▁piquet	-11.8999
▁afiliados	-11.9
▁provenen	-11.9004
▁estableceron	-11.9004
▁mix	-11.9004
▁kat	-11.9005
ske	-11.9006
▁dig	-11.9006
▁br	-11.9011
cm	-11.9011
▁norman	-11.9012
aq	-11.9013
▁macrofagos	-11.9013
▁manzaneda	-11.9013
▁mesopotamia	-11.9013
▁nirvana	-11.9013
▁ponferrada	-11.9013
▁carracedo	-11.9013
▁finanzas	-11.9013
▁eritrea	-11.9013
▁fonseca	-11.9013
▁carrasco	-11.9013
▁ritual	-11.9013
▁ayumi	-11.9013
▁burundi	-11.9013
▁interferencia	-11.9014
▁elixiu	-11.9014
▁pesqueiro	-11.9014
▁sucesivamente	-11.9014
▁borneo	-11.9014
▁yeah	-11.9014
▁county	-11.9014
▁keith	-11.9014
▁endemico	-11.9015
▁low	-11.9015
▁recepcion	-11.9015
▁pensado	-11.9016
▁patri	-11.902
exo	-11.902
▁kentucky	-11.9022
▁foco	-11.9022
▁guan	-11.9024
▁figueiras	-11.9026
▁coloniais	-11.9029
▁parti	-11.9029
▁rebel	-11.903
▁ces	-11.9031
▁aragonesa	-11.9031
▁maryland	-11.9031
▁vermes	-11.9034
▁despo	-11.9035
▁cork	-11.9036
▁protectorado	-11.9038
▁empresaria	-11.9038
▁turk	-11.9041
▁barras	-11.9042
▁superviventes	-11.9043
▁estean	-11.9043
▁crecen	-11.9045
▁descenden	-11.9045
▁gobernada	-11.9048
try	-11.9051
garda	-11.9053
▁sainte	-11.9057
▁cantis	-11.906
centr	-11.9062
▁gozo	-11.9066
▁mak	-11.9069
▁berce	-11.9072
amente	-11.9072
▁crimes	-11.9075
▁crow	-11.9077
▁serbios	-11.9084
eve	-11.9085
▁prototipo	-11.9085
▁embarcacion	-11.9085
▁main	-11.9089
▁asento	-11.9092
linas	-11.9092
▁tes	-11.9097
▁cua	-11.9098
▁silencio	-11.91
▁variados	-11.9101
sign	-11.9101
▁states	-11.9107
▁racional	-11.9109
▁viquingos	-11.9111
▁climas	-11.9112
▁compa	-11.9112
▁estima	-11.9113
▁zuric	-11.9114
▁morre	-11.9114
▁deshidroxenase	-11.9115
▁montserrat	-11.9115
▁myanmar	-11.9115
▁prolifico	-11.9115
▁rexeitou	-11.9115
▁bovidos	-11.9115
▁etimoloxia	-11.9115
▁hidrolise	-11.9116
▁nacen	-11.9116
▁prehistoria	-11.9116
▁laos	-11.9117
▁tumbas	-11.9119
▁cedido	-11.9119
▁apoiou	-11.9119
▁alelos	-11.912
▁rende	-11.912
▁trompeta	-11.9123
▁antartica	-11.9123
▁formais	-11.9123
▁asteroides	-11.9124
▁alicia	-11.9124
▁merida	-11.9125
▁presidenciais	-11.9127
▁andar	-11.9127
▁representados	-11.9127
▁secuenciacion	-11.9127
▁defensores	-11.9127
▁vilacha	-11.9131
▁raras	-11.9132
mundo	-11.9133
▁unix	-11.9135
▁vendendo	-11.9137
▁mah	-11.9138
flu	-11.914
▁fara	-11.9143
▁avanza	-11.9145
tante	-11.9146
lion	-11.9149
▁gripe	-11.9149
▁clasificaron	-11.9149
hall	-11.9149
opo	-11.9151
esca	-11.9153
▁ester	-11.9153
medio	-11.9153
▁dedicou	-11.9154
oto	-11.9157
▁sex	-11.9159
cast	-11.916
▁vu	-11.9161
▁enteiros	-11.9161
▁probar	-11.9161
▁altera	-11.9162
$	-11.9163
▁flavia	-11.9165
aza	-11.9166
▁true	-11.9167
▁sapo	-11.9169
▁directos	-11.9174
▁perfeccion	-11.9176
▁mascara	-11.9176
▁place	-11.9177
▁introduce	-11.9178
riano	-11.9179
▁primarias	-11.9179
▁incluian	-11.918
lau	-11.918
▁libremente	-11.918
indose	-11.9182
▁terminar	-11.9184
hol	-11.9185
yana	-11.9186
xeo	-11.9188
▁syr	-11.9188
▁romantica	-11.9191
cilla	-11.9192
▁atravesar	-11.9193
▁embaixador	-11.9193
▁parlamentario	-11.9193
didos	-11.9193
▁inspira	-11.9193
▁curro	-11.9194
▁maximos	-11.9196
▁anion	-11.9198
▁ida	-11.92
bund	-11.9202
luc	-11.9204
▁orixinarios	-11.9206
nier	-11.9206
▁peptido	-11.9209
▁atopadas	-11.9213
▁ricas	-11.9213
▁anatomica	-11.9214
▁lud	-11.9215
▁sau	-11.9218
▁aeronautica	-11.9218
▁cimadevila	-11.9218
▁conduciu	-11.9218
▁enerxetica	-11.9218
▁peloponeso	-11.9218
▁uzbekistan	-11.9218
▁xurdida	-11.9218
▁desencadea	-11.9218
▁integridade	-11.9218
▁meirinado	-11.9218
▁zagreb	-11.9218
▁jeremy	-11.9218
▁hamasaki	-11.9218
▁vicenzo	-11.9218
▁qu	-11.9218
▁telefilme	-11.9218
▁ficou	-11.9219
▁eficaz	-11.9219
▁stuart	-11.9219
▁flash	-11.9219
▁renunciou	-11.9219
▁ceuta	-11.9219
▁neolitico	-11.922
▁fosforilacion	-11.922
▁denominou	-11.922
▁xordania	-11.922
▁utilidade	-11.922
▁mostrar	-11.9221
▁gradualmente	-11.9222
▁esposo	-11.9222
▁disc	-11.9222
▁bulbo	-11.9223
▁forestal	-11.9224
hip	-11.9225
▁coronavirus	-11.9225
automobile	-11.9225
▁abeleira	-11.9227
inia	-11.9229
▁aproveitando	-11.9231
▁bush	-11.9233
▁sancion	-11.9233
▁rapaza	-11.9236
txe	-11.9237
▁circulos	-11.9238
version	-11.9239
▁yama	-11.924
▁fino	-11.924
▁dodro	-11.9241
▁lenta	-11.9241
lene	-11.9242
▁"000	-11.9243
▁meli	-11.9243
▁bantu	-11.9243
▁arterial	-11.9244
▁serpes	-11.9244
▁ascender	-11.9244
bad	-11.9245
tempo	-11.9246
▁nomear	-11.9248
▁nomeou	-11.9249
zec	-11.925
▁born	-11.9251
tam	-11.9254
▁conformada	-11.9255
▁kro	-11.9256
▁emisoras	-11.9257
▁med	-11.9258
▁dirixidas	-11.9262
ault	-11.9265
aj	-11.9266
▁cobren	-11.9268
jet	-11.9268
[...]
